#include "har_ign_wsdm_data.h"

ai_handle ai_har_ign_wsdm_data_weights_get(void)
{

  AI_ALIGNED(4)
  static const ai_u8 s_har_ign_wsdm_weights[ 5504 ] = {
    0x30, 0xd1, 0xad, 0xbb, 0x7d, 0x6d, 0x20, 0x3d, 0x63, 0xd5,
    0x25, 0x3d, 0x77, 0x0f, 0x2d, 0xbd, 0x02, 0x21, 0x79, 0xbb,
    0xdb, 0x71, 0x27, 0xbe, 0x75, 0xbc, 0x92, 0xbd, 0x18, 0x36,
    0x9b, 0xbd, 0xaf, 0x9e, 0xba, 0xbd, 0xef, 0xc9, 0xe3, 0xbd,
    0xdf, 0x3e, 0x98, 0x3c, 0xf2, 0x68, 0x4d, 0x3c, 0x53, 0x09,
    0x10, 0x3d, 0x68, 0x31, 0x71, 0x3c, 0x36, 0x43, 0x71, 0x3d,
    0xf3, 0x64, 0x87, 0x3d, 0x09, 0xae, 0x1e, 0x3d, 0x29, 0x63,
    0xc3, 0x3d, 0x3e, 0x6b, 0x1c, 0xbe, 0x7c, 0x17, 0x3e, 0x3d,
    0x73, 0x47, 0x37, 0xbd, 0xaf, 0xe7, 0x2c, 0x3c, 0x38, 0x4f,
    0x7a, 0x3d, 0x5a, 0x99, 0xc2, 0x3d, 0xbd, 0x53, 0x8f, 0x3d,
    0x62, 0x45, 0x8c, 0x3d, 0x67, 0xb1, 0x5d, 0x3c, 0x92, 0x9c,
    0x98, 0x3d, 0xfa, 0x0f, 0xb1, 0x3d, 0x79, 0x7f, 0x5e, 0x3d,
    0xd6, 0xf9, 0x31, 0x3d, 0xbf, 0xae, 0x95, 0x3d, 0xc5, 0xfe,
    0x71, 0xbd, 0xe5, 0x63, 0x72, 0x3c, 0x0f, 0x0b, 0xc2, 0x3b,
    0x95, 0xcc, 0x17, 0x3c, 0x54, 0xca, 0xfa, 0x3c, 0xf9, 0x10,
    0xbe, 0x3b, 0x15, 0x83, 0x13, 0x3c, 0x19, 0x5e, 0x5d, 0x3b,
    0x36, 0x53, 0xb2, 0xbc, 0xa4, 0x2d, 0x98, 0xbc, 0x54, 0x86,
    0xd1, 0xbc, 0xd2, 0x9f, 0x30, 0xbd, 0x83, 0xca, 0x40, 0xbd,
    0xfe, 0x98, 0xc9, 0xbc, 0x94, 0x4b, 0x20, 0xba, 0xeb, 0x4b,
    0x56, 0x3d, 0xde, 0x58, 0xe7, 0x3c, 0x49, 0x6d, 0xbd, 0x3b,
    0x93, 0x56, 0x92, 0xbc, 0xd1, 0x43, 0xaa, 0xbd, 0x88, 0xf6,
    0xae, 0xbd, 0x39, 0x18, 0xc4, 0xbd, 0x74, 0x9e, 0x9e, 0xbd,
    0x4f, 0xc5, 0xf1, 0x3d, 0x83, 0xa0, 0x4e, 0x3c, 0x37, 0x02,
    0x2e, 0xbd, 0x72, 0x64, 0xc9, 0x3d, 0x43, 0xe0, 0x29, 0x3d,
    0x0f, 0x0a, 0x65, 0x3d, 0x91, 0x20, 0xb2, 0x3c, 0xb3, 0xef,
    0xa5, 0x3c, 0xd0, 0xca, 0xd9, 0xbc, 0xba, 0x90, 0xaa, 0xbc,
    0x00, 0x59, 0x4c, 0xbd, 0xe5, 0xc6, 0xfb, 0x3d, 0xe0, 0x6b,
    0x05, 0x3e, 0xa4, 0x5b, 0x9e, 0x3d, 0xcc, 0x7f, 0xbe, 0x3d,
    0x2f, 0x15, 0xb0, 0x3d, 0x1c, 0xc6, 0x91, 0x3c, 0x30, 0x0c,
    0x94, 0xbd, 0x0c, 0x4a, 0x3e, 0xbd, 0xc7, 0x7e, 0x23, 0xbd,
    0xe8, 0x58, 0xe4, 0xbb, 0xf1, 0x2c, 0x18, 0xbd, 0x3f, 0xbb,
    0x9d, 0xbd, 0xb2, 0x7c, 0xa3, 0xbd, 0x89, 0xaa, 0x67, 0x3c,
    0x61, 0x14, 0x5b, 0xbd, 0x2a, 0xc5, 0x2c, 0x3e, 0x44, 0x87,
    0x97, 0xbd, 0x60, 0x99, 0xbf, 0x3c, 0x19, 0x0b, 0xe4, 0xbc,
    0xad, 0xd9, 0x61, 0x3c, 0x85, 0xbc, 0x00, 0x3c, 0x95, 0x0d,
    0x53, 0xbc, 0xb3, 0x6d, 0x12, 0xbd, 0xee, 0x45, 0x82, 0x3c,
    0x47, 0xaa, 0x74, 0xbc, 0x29, 0x5d, 0x72, 0xbb, 0xd2, 0xd5,
    0x37, 0xbd, 0xd5, 0xc6, 0x04, 0x3d, 0xcf, 0x9f, 0x7d, 0xbd,
    0x7e, 0x62, 0x93, 0x3d, 0x1c, 0x3a, 0x0d, 0xbd, 0x4c, 0x0c,
    0x14, 0xbd, 0x8e, 0xa9, 0x2c, 0xbd, 0xfb, 0xeb, 0x98, 0xbd,
    0xc6, 0x0b, 0x23, 0xbd, 0x7b, 0x04, 0x63, 0xbd, 0x68, 0xf0,
    0x02, 0x3e, 0xd5, 0x1d, 0x89, 0xbd, 0x10, 0xaf, 0xb8, 0x3c,
    0x7d, 0x8b, 0x31, 0xbc, 0x8c, 0x20, 0xd9, 0xbc, 0xab, 0xfc,
    0x86, 0x3c, 0x6c, 0xd9, 0xac, 0x3c, 0x93, 0x98, 0x4d, 0x3e,
    0x0b, 0x3e, 0x78, 0xbc, 0xaf, 0x04, 0x82, 0x3d, 0x85, 0xde,
    0x7e, 0x3c, 0x8f, 0xeb, 0x15, 0x3c, 0x2d, 0xd1, 0x18, 0xbd,
    0x67, 0x5f, 0x8d, 0x3c, 0x38, 0xb5, 0x1d, 0x3d, 0x15, 0xcb,
    0x86, 0x3c, 0x0c, 0x40, 0x26, 0x3d, 0xe5, 0xa5, 0x6c, 0x3c,
    0x1f, 0x23, 0xd2, 0xbd, 0x5a, 0x6e, 0xb1, 0xbd, 0xc5, 0xab,
    0x21, 0xbc, 0xd4, 0xc4, 0xa1, 0xbb, 0x0d, 0x54, 0x5c, 0xbd,
    0x44, 0x67, 0xb7, 0x3b, 0x4d, 0x37, 0x95, 0x3d, 0xe6, 0x8e,
    0x07, 0xbd, 0xef, 0x69, 0x6c, 0xbc, 0x2e, 0xa3, 0xe2, 0x3d,
    0x4a, 0xa0, 0xea, 0xbc, 0x32, 0x5d, 0xff, 0xbc, 0xa8, 0x95,
    0x9f, 0xbc, 0x9e, 0x38, 0x22, 0x3d, 0x8d, 0xb2, 0x48, 0x3d,
    0xf2, 0x13, 0xd4, 0x3c, 0x8c, 0xe0, 0x7d, 0xbd, 0xa6, 0x84,
    0xdd, 0x3c, 0xe2, 0xad, 0xb1, 0xbd, 0xcd, 0xf1, 0x02, 0xbd,
    0xbe, 0x65, 0x77, 0xbd, 0x3c, 0x29, 0x9e, 0xbc, 0xe3, 0x1a,
    0x1b, 0x3e, 0xb6, 0x2c, 0xdd, 0xbd, 0x3d, 0x07, 0xb2, 0x3d,
    0xad, 0x91, 0xcf, 0xbc, 0x1d, 0x5a, 0x86, 0xbb, 0x33, 0x3b,
    0x54, 0xbe, 0xbb, 0x45, 0x0e, 0x3c, 0x0e, 0xcc, 0x51, 0xbc,
    0xf0, 0x60, 0x0b, 0xbd, 0x0a, 0xc1, 0x3e, 0xbd, 0xa7, 0x00,
    0x6a, 0xbc, 0x6b, 0x40, 0x06, 0x3d, 0xe3, 0x7a, 0x90, 0x3d,
    0x38, 0x41, 0x94, 0x3d, 0xac, 0xcd, 0xc5, 0x3d, 0xe0, 0x2f,
    0xbb, 0x3d, 0x14, 0x7b, 0xd2, 0x3d, 0xab, 0xc7, 0x79, 0x3d,
    0x59, 0x81, 0xb9, 0x3c, 0xbf, 0xc2, 0x87, 0x3d, 0x89, 0xfd,
    0xd6, 0x3d, 0xda, 0xf5, 0xf0, 0xbd, 0xd8, 0xe9, 0x08, 0x3e,
    0xed, 0xe0, 0xa2, 0x3d, 0x0a, 0x30, 0x51, 0x3d, 0x3a, 0x51,
    0xa5, 0xbb, 0x53, 0x2f, 0x38, 0xbc, 0xbb, 0x35, 0x1c, 0xbd,
    0x45, 0x3d, 0x78, 0x3c, 0x21, 0xdc, 0x84, 0xbd, 0x82, 0x51,
    0x2a, 0xbd, 0x88, 0x32, 0xf6, 0xbc, 0xe5, 0xf3, 0xaa, 0xbc,
    0x6b, 0xbd, 0x39, 0x3c, 0x01, 0xf7, 0xb9, 0x3d, 0xde, 0x4b,
    0x82, 0x3d, 0xc2, 0x2e, 0x85, 0x3d, 0xc2, 0x36, 0x35, 0x3d,
    0x80, 0xdd, 0x0d, 0x3d, 0xc8, 0x77, 0x94, 0x3d, 0x03, 0xec,
    0x09, 0x3d, 0x7d, 0x96, 0x09, 0xbd, 0x79, 0x7e, 0x10, 0xbc,
    0xf8, 0x38, 0x0e, 0xbd, 0x15, 0xe8, 0x15, 0xbe, 0x37, 0xdb,
    0x95, 0xbd, 0xac, 0x5b, 0x15, 0x3d, 0xc4, 0x5d, 0x9f, 0xbd,
    0xff, 0xb5, 0x12, 0xbe, 0xe9, 0x07, 0x8d, 0xbd, 0xcc, 0xe8,
    0x32, 0xbe, 0x1f, 0x15, 0x04, 0xbe, 0x86, 0x20, 0xca, 0xbc,
    0x85, 0xeb, 0x38, 0x3d, 0xb9, 0x5a, 0xd2, 0xbd, 0x0e, 0xd4,
    0x69, 0x3d, 0xee, 0xe6, 0x17, 0x3d, 0xcb, 0xd0, 0x2f, 0x3c,
    0x43, 0x93, 0x0d, 0xbc, 0xf8, 0x0e, 0x35, 0xbd, 0xf1, 0x57,
    0x0c, 0xbc, 0x08, 0x90, 0x64, 0x3c, 0xd8, 0x7f, 0x80, 0xbc,
    0x7f, 0x61, 0xbe, 0xbc, 0x90, 0xfe, 0xb6, 0xbc, 0x5c, 0xc6,
    0x82, 0xbc, 0x0c, 0x3a, 0x1e, 0xbe, 0x2c, 0x03, 0xd7, 0xbd,
    0x10, 0x64, 0xad, 0xbd, 0x1c, 0x2e, 0x00, 0xbd, 0xfe, 0xef,
    0x85, 0xbd, 0xe7, 0xcb, 0xc4, 0xbd, 0xf8, 0xf3, 0xfe, 0xbc,
    0x47, 0xf1, 0x06, 0x3d, 0x84, 0x9c, 0x5d, 0x3c, 0x9c, 0xc0,
    0x2e, 0xbd, 0x9d, 0x61, 0xa4, 0xbd, 0xb3, 0xa9, 0x15, 0xbe,
    0x88, 0x60, 0x99, 0xbd, 0x83, 0x5a, 0x43, 0xbd, 0xdf, 0x84,
    0xa5, 0xbc, 0x90, 0x53, 0x83, 0xbc, 0x2c, 0xb6, 0x70, 0x3d,
    0xe7, 0x56, 0xbf, 0xbb, 0xe8, 0x3a, 0x0f, 0xbc, 0x04, 0x3e,
    0x41, 0xbb, 0x8c, 0x31, 0xce, 0xbc, 0xbc, 0x5b, 0x1a, 0xbe,
    0x6c, 0xa2, 0x05, 0xbe, 0xf3, 0x07, 0xb1, 0x3b, 0x18, 0x03,
    0x01, 0xbd, 0x8e, 0xbf, 0xb4, 0x38, 0x4e, 0x68, 0x81, 0x3c,
    0xd0, 0x21, 0xbb, 0xbc, 0x8f, 0x94, 0x0a, 0x3b, 0x8d, 0x19,
    0x69, 0xbb, 0x0f, 0x26, 0xbf, 0x3c, 0x2c, 0xf8, 0x92, 0x3c,
    0x98, 0xc2, 0xa1, 0xbd, 0xde, 0x43, 0x86, 0xbd, 0x7e, 0x0d,
    0x9a, 0xba, 0xa2, 0x83, 0x1d, 0x3c, 0x44, 0xe6, 0xf7, 0x3c,
    0x1d, 0xd5, 0x6f, 0x3d, 0x34, 0x94, 0x74, 0xbd, 0x31, 0xa3,
    0x99, 0xbb, 0xf9, 0x57, 0xbd, 0x3a, 0xa8, 0xb3, 0x1a, 0xbc,
    0xf8, 0x58, 0xd5, 0xbd, 0xb1, 0x35, 0xea, 0xbd, 0x68, 0xf0,
    0xf7, 0xbb, 0xd7, 0x49, 0xf5, 0xbc, 0x01, 0xbd, 0x41, 0x3c,
    0x3b, 0xc1, 0x41, 0x3c, 0x1b, 0x01, 0x8d, 0xbc, 0x9a, 0x8e,
    0x60, 0x3c, 0xe4, 0xe0, 0xb0, 0x3d, 0x5c, 0x67, 0x09, 0x3e,
    0x12, 0x09, 0x85, 0x3d, 0x28, 0xda, 0xed, 0xbd, 0x43, 0x14,
    0x57, 0x3d, 0x39, 0x7c, 0xe9, 0xbd, 0xf2, 0x58, 0x38, 0xbd,
    0xef, 0xd2, 0x38, 0xbd, 0xce, 0x83, 0xda, 0x3d, 0x67, 0x4d,
    0x2e, 0x3c, 0x43, 0xa7, 0x15, 0x3d, 0xb8, 0xc7, 0x58, 0xbd,
    0xfb, 0xcd, 0xbc, 0x3a, 0x89, 0x01, 0xe4, 0x3c, 0xd9, 0x24,
    0x45, 0x3d, 0x2b, 0x90, 0x53, 0x3d, 0xac, 0x76, 0xcd, 0xbb,
    0x65, 0xf1, 0xa8, 0xbd, 0xd6, 0xb0, 0x7e, 0x3c, 0xd6, 0x3c,
    0xfb, 0x3c, 0x1a, 0xdf, 0xf5, 0x3c, 0x45, 0x92, 0x67, 0x3c,
    0xa8, 0xba, 0xc2, 0xbc, 0x47, 0xeb, 0x81, 0xbc, 0x71, 0x03,
    0x9c, 0xbc, 0x38, 0xd2, 0x22, 0xbc, 0x7d, 0x6a, 0xe5, 0x3c,
    0x45, 0x53, 0x27, 0x3c, 0xa9, 0x18, 0x8c, 0x3c, 0x60, 0xac,
    0x8b, 0xbc, 0x01, 0x1c, 0x01, 0x3e, 0x2d, 0x7c, 0x76, 0x3d,
    0x7b, 0x50, 0xcc, 0xbd, 0x7d, 0x22, 0xa3, 0xbd, 0x6f, 0x19,
    0x9f, 0xbd, 0x14, 0x27, 0x45, 0xbd, 0x1a, 0xfa, 0x43, 0x3b,
    0x8f, 0x99, 0x4b, 0x3c, 0xc6, 0x37, 0x7e, 0x3d, 0x46, 0x4e,
    0x91, 0x3d, 0x46, 0xad, 0x33, 0x3d, 0xf8, 0x42, 0x03, 0x3c,
    0xa0, 0xa2, 0x95, 0xbd, 0x22, 0xe0, 0x91, 0xbd, 0x57, 0xda,
    0x16, 0xbd, 0xb7, 0xc9, 0x88, 0x3d, 0xdf, 0x44, 0x24, 0xbd,
    0x76, 0x5c, 0x15, 0xbc, 0xe1, 0x88, 0xf6, 0xbd, 0x4e, 0xc0,
    0x85, 0x3d, 0x64, 0xe2, 0x1b, 0xbd, 0xd7, 0xd8, 0x4b, 0xbd,
    0x67, 0x28, 0xec, 0xbc, 0x8c, 0x6d, 0xa1, 0xbd, 0x7d, 0xe1,
    0xe6, 0xbd, 0xe4, 0x7a, 0x17, 0xbe, 0x27, 0xb9, 0x02, 0xbe,
    0x4e, 0xe2, 0xc4, 0xbd, 0x90, 0xe8, 0xba, 0xbd, 0xca, 0x73,
    0x25, 0xbd, 0x70, 0xaa, 0x15, 0xbd, 0x2d, 0x93, 0x0e, 0x3d,
    0xd6, 0x49, 0xa3, 0xbd, 0x65, 0xa6, 0x3c, 0x3d, 0xe1, 0xba,
    0xad, 0x3c, 0x1a, 0x1e, 0x03, 0x3e, 0x04, 0xb9, 0x60, 0x3d,
    0xc7, 0xa3, 0x9f, 0xbd, 0x4c, 0xe6, 0xb7, 0xbb, 0x5b, 0x85,
    0x75, 0xbd, 0xda, 0x01, 0xbb, 0xbb, 0xce, 0xd0, 0x8b, 0xbd,
    0x27, 0x76, 0xb6, 0xbc, 0x5d, 0xa4, 0x92, 0xbd, 0xe0, 0xa1,
    0x88, 0xbd, 0xa6, 0x30, 0x85, 0xbd, 0xb6, 0x77, 0x95, 0xbd,
    0x70, 0xf7, 0xc5, 0xbd, 0x51, 0x1b, 0xa0, 0x3a, 0x4f, 0xfe,
    0x63, 0x3b, 0x88, 0x91, 0xa3, 0xbc, 0xf7, 0xc2, 0xfa, 0xbc,
    0x02, 0x36, 0xf9, 0xbb, 0xa8, 0x5d, 0xd4, 0xbd, 0x36, 0x40,
    0x55, 0xbe, 0xc7, 0x45, 0x18, 0xbe, 0xf9, 0xf6, 0x91, 0xbd,
    0x70, 0x1c, 0xdf, 0xbd, 0x51, 0x09, 0x1b, 0xbd, 0xe0, 0xe2,
    0xc6, 0xbd, 0xce, 0x71, 0xb5, 0xbd, 0x67, 0xf7, 0x7f, 0xbd,
    0x59, 0xc8, 0x87, 0xbd, 0x04, 0x91, 0x07, 0xbd, 0x95, 0x50,
    0xad, 0x3c, 0xd0, 0x2d, 0x54, 0x3d, 0x51, 0xea, 0x68, 0x3c,
    0xe4, 0x6a, 0xa8, 0xbd, 0x17, 0xe3, 0x2e, 0xbd, 0x1a, 0xf9,
    0x98, 0x3d, 0x23, 0x8d, 0x59, 0x3d, 0x6d, 0x0a, 0x51, 0x3d,
    0x65, 0x68, 0x3d, 0x3d, 0x90, 0x66, 0xb5, 0xbd, 0x36, 0xae,
    0x7a, 0xbc, 0xf2, 0xbe, 0x58, 0x3d, 0x6b, 0x05, 0xdf, 0x3d,
    0x82, 0x8a, 0x55, 0x3c, 0x4a, 0x76, 0xe1, 0xbc, 0xc3, 0x4e,
    0x3f, 0xbd, 0x8a, 0x97, 0xe1, 0x3d, 0xd7, 0x6f, 0x3e, 0x3d,
    0x04, 0xc0, 0xd1, 0x3b, 0x7f, 0xe6, 0xcc, 0x3c, 0xe1, 0x01,
    0x09, 0x3d, 0x12, 0x3f, 0x3b, 0x3d, 0x85, 0xec, 0x28, 0x3d,
    0xb8, 0xbe, 0x9c, 0x3d, 0xdd, 0x7f, 0xe0, 0x3c, 0x63, 0xb2,
    0x0b, 0x3c, 0x4f, 0xbf, 0x71, 0xbd, 0x06, 0xfc, 0xf5, 0xbc,
    0x5f, 0x24, 0xb7, 0xbd, 0xba, 0xbf, 0x07, 0xbd, 0xc1, 0xc7,
    0x17, 0xbd, 0x10, 0xb2, 0xa0, 0x3d, 0x0f, 0x4f, 0x52, 0xbc,
    0x6e, 0x0d, 0xf9, 0xbe, 0xd8, 0x5c, 0x33, 0x3f, 0xa2, 0xcf,
    0x2f, 0xbf, 0x6a, 0x4d, 0x38, 0xbf, 0xa2, 0x02, 0x3a, 0xbf,
    0xd2, 0xe4, 0x27, 0xbf, 0xf5, 0xab, 0x9e, 0x3e, 0xe2, 0xdd,
    0x22, 0xbc, 0x84, 0x13, 0xa8, 0xbc, 0x4c, 0x79, 0x19, 0xbd,
    0x37, 0x50, 0xb8, 0xbc, 0x00, 0x98, 0xd6, 0x3e, 0xc0, 0xad,
    0xf9, 0xbe, 0x30, 0x49, 0x7a, 0xbf, 0x9b, 0xf9, 0xaa, 0xbf,
    0x2c, 0x95, 0x0d, 0xbf, 0xfb, 0xee, 0x38, 0x3f, 0xbc, 0x2c,
    0x0d, 0xbd, 0xdc, 0xe4, 0x62, 0xbd, 0x86, 0x12, 0x60, 0xbf,
    0x31, 0x4e, 0xc2, 0xbe, 0xd4, 0x31, 0x5b, 0xbc, 0xc2, 0xd2,
    0x83, 0xbf, 0x62, 0x1a, 0x81, 0xbf, 0x63, 0x49, 0x80, 0xbf,
    0xc6, 0xf0, 0x7e, 0xbf, 0xc8, 0x4e, 0x7d, 0xbf, 0xc9, 0xac,
    0x7b, 0xbf, 0xca, 0x0a, 0x7a, 0xbf, 0xcb, 0x68, 0x78, 0xbf,
    0xcd, 0xc6, 0x76, 0xbf, 0xce, 0x24, 0x75, 0xbf, 0xcf, 0x82,
    0x73, 0xbf, 0xd0, 0xe0, 0x71, 0xbf, 0xd2, 0x3e, 0x70, 0xbf,
    0xd3, 0x9c, 0x6e, 0xbf, 0xd4, 0xfa, 0x6c, 0xbf, 0xd5, 0x58,
    0x6b, 0xbf, 0xd6, 0xb6, 0x69, 0xbf, 0xd8, 0x14, 0x68, 0xbf,
    0xd9, 0x72, 0x66, 0xbf, 0x1c, 0x28, 0x65, 0xbf, 0xdb, 0x2e,
    0x63, 0xbf, 0xdd, 0x8c, 0x61, 0xbf, 0xde, 0xea, 0x5f, 0xbf,
    0xdf, 0x48, 0x5e, 0xbf, 0xe0, 0xa6, 0x5c, 0xbf, 0xe1, 0x04,
    0x5b, 0xbf, 0xe3, 0x62, 0x59, 0xbf, 0xe4, 0xc0, 0x57, 0xbf,
    0xe5, 0x1e, 0x56, 0xbf, 0xe6, 0x7c, 0x54, 0xbf, 0xe8, 0xda,
    0x52, 0xbf, 0xe9, 0x38, 0x51, 0xbf, 0xea, 0x96, 0x4f, 0xbf,
    0xeb, 0xf4, 0x4d, 0xbf, 0xed, 0x52, 0x4c, 0xbf, 0xee, 0xb0,
    0x4a, 0xbf, 0xef, 0x0e, 0x49, 0xbf, 0xf0, 0x6c, 0x47, 0xbf,
    0xf1, 0xca, 0x45, 0xbf, 0xf3, 0x28, 0x44, 0xbf, 0xf4, 0x86,
    0x42, 0xbf, 0xf5, 0xe4, 0x40, 0xbf, 0xf6, 0x42, 0x3f, 0xbf,
    0xf8, 0xa0, 0x3d, 0xbf, 0xf9, 0xfe, 0x3b, 0xbf, 0xfa, 0x5c,
    0x3a, 0xbf, 0xfb, 0xba, 0x38, 0xbf, 0xfc, 0x18, 0x37, 0xbf,
    0xfe, 0x76, 0x35, 0xbf, 0xff, 0xd4, 0x33, 0xbf, 0x00, 0x33,
    0x32, 0xbf, 0x01, 0x91, 0x30, 0xbf, 0x03, 0xef, 0x2e, 0xbf,
    0x04, 0x4d, 0x2d, 0xbf, 0x05, 0xab, 0x2b, 0xbf, 0x06, 0x09,
    0x2a, 0xbf, 0x08, 0x67, 0x28, 0xbf, 0x09, 0xc5, 0x26, 0xbf,
    0x45, 0x41, 0x25, 0xbf, 0x0b, 0x81, 0x23, 0xbf, 0x0c, 0xdf,
    0x21, 0xbf, 0x0e, 0x3d, 0x20, 0xbf, 0x0f, 0x9b, 0x1e, 0xbf,
    0xe9, 0x8f, 0x1c, 0xbf, 0x11, 0x57, 0x1b, 0xbf, 0x13, 0xb5,
    0x19, 0xbf, 0x14, 0x13, 0x18, 0xbf, 0x15, 0x71, 0x16, 0xbf,
    0x16, 0xcf, 0x14, 0xbf, 0x9c, 0xd7, 0x13, 0xbf, 0x19, 0x8b,
    0x11, 0xbf, 0x1a, 0xe9, 0x0f, 0xbf, 0x1b, 0x47, 0x0e, 0xbf,
    0x1c, 0xa5, 0x0c, 0xbf, 0x1e, 0x03, 0x0b, 0xbf, 0x14, 0xb0,
    0x09, 0xbf, 0xfb, 0xed, 0x07, 0xbf, 0x21, 0x1d, 0x06, 0xbf,
    0x23, 0x7b, 0x04, 0xbf, 0xab, 0x1c, 0x02, 0xbf, 0x25, 0x37,
    0x01, 0xbf, 0x84, 0x5a, 0xff, 0xbe, 0xda, 0x71, 0xfa, 0xbe,
    0x51, 0xa2, 0xf8, 0xbe, 0x95, 0xbc, 0xf5, 0xbe, 0x56, 0x1a,
    0xf2, 0xbe, 0xaf, 0xab, 0xef, 0xbe, 0x69, 0x20, 0xea, 0xbe,
    0x5e, 0x4e, 0xe8, 0xbe, 0x60, 0x0a, 0xe5, 0xbe, 0x62, 0xc6,
    0xe1, 0xbe, 0x65, 0x82, 0xde, 0xbe, 0x67, 0x3e, 0xdb, 0xbe,
    0x34, 0x49, 0xd7, 0xbe, 0x57, 0x1f, 0xd4, 0xbe, 0x77, 0x51,
    0xd0, 0xbe, 0x5e, 0xe8, 0xce, 0xbe, 0x74, 0xea, 0xca, 0xbe,
    0x6d, 0x94, 0xc6, 0xbe, 0x65, 0xec, 0xc4, 0xbe, 0x93, 0x05,
    0xc1, 0xbe, 0x07, 0xe7, 0xbe, 0xbe, 0xfc, 0x93, 0xba, 0xbe,
    0x95, 0x46, 0xb6, 0xbe, 0x85, 0x0e, 0xb4, 0xbe, 0x3b, 0x74,
    0xb1, 0xbe, 0x15, 0xa6, 0xae, 0xbe, 0x41, 0x35, 0xa9, 0xbe,
    0xde, 0xdc, 0xa6, 0xbe, 0x6e, 0x81, 0xa3, 0xbe, 0x46, 0xba,
    0x9f, 0xbe, 0xee, 0xf3, 0x9c, 0xbe, 0xa2, 0x46, 0x9a, 0xbe,
    0x18, 0x1c, 0x96, 0xbe, 0xa4, 0xfd, 0x93, 0xbe, 0x98, 0x95,
    0x8f, 0xbe, 0x12, 0x95, 0x8b, 0xbe, 0xdb, 0x67, 0x89, 0xbe,
    0x6f, 0xea, 0x86, 0xbe, 0x08, 0x61, 0x84, 0xbe, 0x41, 0xc4,
    0x80, 0xbe, 0xc9, 0xaf, 0x79, 0xbe, 0xa5, 0xd0, 0x70, 0xbe,
    0x3c, 0xab, 0x6c, 0xbe, 0x8d, 0x36, 0x66, 0xbe, 0x6a, 0x00,
    0x5f, 0xbe, 0x40, 0x66, 0x58, 0xbe, 0x9d, 0x00, 0x52, 0xbe,
    0x84, 0x83, 0x4b, 0xbe, 0x8e, 0x27, 0x45, 0xbe, 0xed, 0x12,
    0x3e, 0xbe, 0xf3, 0x08, 0x38, 0xbe, 0x41, 0x90, 0x2f, 0xbe,
    0xa6, 0x61, 0x2a, 0xbe, 0x24, 0x46, 0x23, 0xbe, 0xd5, 0xee,
    0x1b, 0xbe, 0xab, 0xd9, 0x14, 0xbe, 0x98, 0x67, 0x0f, 0xbe,
    0x8d, 0x61, 0x0a, 0xbe, 0xa1, 0xb4, 0x02, 0xbe, 0x8d, 0xd6,
    0xf8, 0xbd, 0xdc, 0xce, 0xec, 0xbd, 0x5b, 0x23, 0xdf, 0xbd,
    0x51, 0x63, 0xd1, 0xbd, 0xff, 0xb5, 0xc4, 0xbd, 0x6a, 0x53,
    0xb8, 0xbd, 0xcd, 0x8c, 0xaa, 0xbd, 0x7c, 0x9a, 0x9e, 0xbd,
    0x3c, 0x5a, 0x93, 0xbd, 0x05, 0x21, 0x84, 0xbd, 0xd0, 0xd4,
    0x6c, 0xbd, 0x06, 0xcd, 0x51, 0xbd, 0x5b, 0x33, 0x37, 0xbd,
    0x9c, 0x98, 0x19, 0xbd, 0x7f, 0xf1, 0x02, 0xbd, 0xf5, 0x29,
    0xd8, 0xbc, 0x31, 0xaa, 0xa0, 0xbc, 0x17, 0x8e, 0x57, 0xbc,
    0xb4, 0x39, 0xde, 0xbb, 0xa3, 0xe7, 0xa5, 0xb9, 0x88, 0xf9,
    0xaa, 0x3b, 0xf3, 0x9a, 0x37, 0x3c, 0x4d, 0x78, 0x98, 0x3c,
    0xbe, 0xbd, 0xcc, 0x3c, 0x34, 0xdf, 0x02, 0x3d, 0x97, 0x84,
    0x17, 0x3d, 0xfa, 0x66, 0x2c, 0x3d, 0x00, 0x59, 0x47, 0x3d,
    0xe1, 0xf5, 0x60, 0x3d, 0xcc, 0xc2, 0x7e, 0x3d, 0x67, 0x38,
    0x8b, 0x3d, 0x94, 0xe3, 0x98, 0x3d, 0x11, 0x59, 0xa7, 0x3d,
    0x88, 0x45, 0xb4, 0x3d, 0xca, 0xb3, 0xc1, 0x3d, 0xba, 0x4b,
    0xcf, 0x3d, 0x48, 0xf3, 0xdc, 0x3d, 0x42, 0x47, 0xea, 0x3d,
    0xbd, 0xf3, 0xf6, 0x3d, 0x4b, 0x47, 0x02, 0x3e, 0x1f, 0xbe,
    0x07, 0x3e, 0x55, 0xfa, 0x0d, 0x3e, 0xf9, 0x81, 0x14, 0x3e,
    0xc8, 0x20, 0x1a, 0x3e, 0x56, 0x5b, 0x22, 0x3e, 0xed, 0x54,
    0x28, 0x3e, 0x16, 0xa1, 0x2f, 0x3e, 0x6c, 0x57, 0x37, 0x3e,
    0xb0, 0xe6, 0x3c, 0x3e, 0x15, 0x57, 0x43, 0x3e, 0x63, 0xd9,
    0x49, 0x3e, 0xc0, 0x50, 0x4f, 0x3e, 0x90, 0xd4, 0x56, 0x3e,
    0xc5, 0xe1, 0x5c, 0x3e, 0xdc, 0xee, 0x62, 0x3e, 0x64, 0xb2,
    0x6a, 0x3e, 0x41, 0xfc, 0x70, 0x3e, 0x80, 0xc9, 0x76, 0x3e,
    0x81, 0xe7, 0x7c, 0x3e, 0x18, 0x07, 0x82, 0x3e, 0x1b, 0x5c,
    0x85, 0x3e, 0x94, 0x88, 0x88, 0x3e, 0x03, 0x49, 0x8c, 0x3e,
    0x59, 0x5f, 0x8f, 0x3e, 0x13, 0xae, 0x92, 0x3e, 0xd5, 0x3a,
    0x96, 0x3e, 0x57, 0xab, 0x99, 0x3e, 0x94, 0x09, 0x9c, 0x3e,
    0x7b, 0x03, 0xa0, 0x3e, 0xe4, 0xa1, 0xa2, 0x3e, 0xdc, 0x90,
    0xa6, 0x3e, 0x74, 0x5c, 0xa9, 0x3e, 0x97, 0x94, 0xac, 0x3e,
    0x65, 0x3c, 0xb0, 0x3e, 0x4c, 0x22, 0xb3, 0x3e, 0x27, 0x31,
    0xb6, 0x3e, 0x4e, 0x63, 0xb9, 0x3e, 0x1e, 0xc9, 0xbc, 0x3e,
    0xd6, 0xd7, 0xbf, 0x3e, 0x2f, 0xc7, 0xc2, 0x3e, 0xfc, 0xa1,
    0xc6, 0x3e, 0xb4, 0x50, 0xca, 0x3e, 0x3d, 0x3a, 0xcc, 0x3e,
    0x7d, 0xee, 0xd0, 0x3e, 0x01, 0xed, 0xd3, 0x3e, 0x52, 0x14,
    0xd7, 0x3e, 0x26, 0x27, 0xd9, 0x3e, 0x4d, 0x9c, 0xdd, 0x3e,
    0xb8, 0x1b, 0xe1, 0x3e, 0x5e, 0xf8, 0xe3, 0x3e, 0x27, 0x69,
    0xe8, 0x3e, 0x43, 0xac, 0xea, 0x3e, 0x02, 0x2e, 0xee, 0x3e,
    0x54, 0xe7, 0xef, 0x3e, 0x4f, 0xac, 0xf4, 0x3e, 0x3a, 0xbc,
    0xf7, 0x3e, 0x28, 0x68, 0xfa, 0x3e, 0x35, 0x44, 0xfe, 0x3e,
    0xfc, 0x84, 0x00, 0x3f, 0x18, 0x66, 0x02, 0x3f, 0x17, 0x08,
    0x04, 0x3f, 0xae, 0x3c, 0x06, 0x3f, 0x0c, 0xa2, 0x06, 0x3f,
    0xf1, 0x9c, 0x08, 0x3f, 0x12, 0x90, 0x0a, 0x3f, 0x11, 0x32,
    0x0c, 0x3f, 0x0f, 0xd4, 0x0d, 0x3f, 0x0e, 0x76, 0x0f, 0x3f,
    0x0d, 0x18, 0x11, 0x3f, 0x0c, 0xba, 0x12, 0x3f, 0x0a, 0x5c,
    0x14, 0x3f, 0x09, 0xfe, 0x15, 0x3f, 0x38, 0xdc, 0x17, 0x3f,
    0x07, 0x42, 0x19, 0x3f, 0x05, 0xe4, 0x1a, 0x3f, 0x04, 0x86,
    0x1c, 0x3f, 0x03, 0x28, 0x1e, 0x3f, 0x9c, 0x9c, 0x7f, 0x93,
    0xa1, 0xc1, 0xbe, 0x9f, 0xac, 0x99, 0xb8, 0xa8, 0xab, 0x86,
    0xa0, 0xbf, 0xa0, 0x91, 0xa0, 0x8e, 0xad, 0xb2, 0x9c, 0xb5,
    0xae, 0xb8, 0x82, 0x92, 0xb8, 0x9c, 0xbf, 0x91, 0xa3, 0xa7,
    0xa5, 0xb0, 0x9c, 0xb0, 0x9f, 0x89, 0x92, 0x89, 0x8b, 0x85,
    0x9f, 0xb5, 0x91, 0xb5, 0x7a, 0xa0, 0xa1, 0xb1, 0x95, 0xcb,
    0xa1, 0xa8, 0xaa, 0xa1, 0x93, 0x93, 0xa4, 0x8f, 0x9f, 0xb6,
    0xb8, 0x97, 0x9f, 0xab, 0xa9, 0xab, 0xa1, 0xc5, 0x96, 0xa9,
    0x79, 0x93, 0xa2, 0xbe, 0xb6, 0xa5, 0x98, 0xa0, 0x94, 0x93,
    0xa7, 0x86, 0xaa, 0xc7, 0x94, 0x7f, 0x8f, 0x98, 0xad, 0xa9,
    0x8a, 0xa9, 0xa7, 0xb5, 0x81, 0x97, 0xa2, 0xa8, 0xab, 0x8c,
    0x9f, 0x91, 0xa5, 0x9a, 0x90, 0xad, 0x9b, 0x8b, 0x8d, 0x84,
    0x9a, 0xac, 0xbb, 0x9f, 0x9f, 0xa5, 0x8e, 0xaa, 0xa3, 0xb1,
    0x9f, 0xd3, 0xb3, 0x9a, 0xc3, 0x99, 0x8b, 0x97, 0x9b, 0x9e,
    0x9b, 0xa9, 0xa4, 0x82, 0xa3, 0x8e, 0xab, 0xa0, 0xad, 0xbd,
    0xa3, 0xb6, 0x95, 0x8c, 0xa1, 0xb3, 0xa9, 0x96, 0xae, 0xa5,
    0xa1, 0xa2, 0xa7, 0xa4, 0xa6, 0xda, 0x9f, 0x8d, 0x8e, 0x99,
    0xc4, 0x9e, 0x99, 0xa4, 0xa0, 0xb9, 0x86, 0xa3, 0xa8, 0xac,
    0xb8, 0x8a, 0xa2, 0xa0, 0xb5, 0xaa, 0x96, 0x95, 0xa9, 0xb0,
    0x9c, 0x91, 0x9c, 0x99, 0xb4, 0xa1, 0x93, 0xa7, 0x8f, 0xa6,
    0x8d, 0xa2, 0x96, 0xca, 0xae, 0x94, 0xb6, 0x97, 0x8d, 0x9e,
    0xa4, 0x97, 0xb7, 0xb0, 0x9d, 0x93, 0x9d, 0xa5, 0xa8, 0x9a,
    0x9d, 0xc1, 0x87, 0xa9, 0xb1, 0x99, 0x95, 0x8b, 0xa0, 0xb3,
    0x83, 0x92, 0x86, 0x8f, 0x8f, 0xa0, 0xa3, 0xa7, 0xab, 0xb8,
    0x9a, 0xa0, 0xa1, 0xb1, 0x96, 0xaa, 0x82, 0xad, 0xa1, 0xa9,
    0x97, 0x9f, 0x8c, 0xa1, 0x98, 0x8d, 0x92, 0x91, 0x9d, 0x87,
    0xa2, 0xd4, 0xa5, 0xb7, 0x95, 0xae, 0x87, 0xaf, 0x9f, 0x9a,
    0xa3, 0xb9, 0x9b, 0x7b, 0x89, 0x84, 0x8d, 0x8f, 0x9d, 0xaf,
    0x92, 0xba, 0xaa, 0x8c, 0xd5, 0xce, 0x9e, 0xb0, 0x80, 0x94,
    0x76, 0xb5, 0x87, 0x90, 0x87, 0xa9, 0xd3, 0x98, 0x9d, 0x80,
    0xa7, 0xb8, 0x92, 0x8a, 0x9b, 0x9f, 0x97, 0x96, 0x9c, 0xa0,
    0x91, 0xaa, 0x9e, 0x8b, 0xab, 0xb7, 0x8c, 0xa6, 0x86, 0xa8,
    0x9d, 0xa0, 0x9e, 0xab, 0xa8, 0xb1, 0x8a, 0x9a, 0x90, 0x9f,
    0xa9, 0x8d, 0x9e, 0xcc, 0xa5, 0xb3, 0x8d, 0x97, 0x94, 0xb0,
    0x90, 0xa6, 0xa2, 0xac, 0xad, 0x70, 0x7d, 0x83, 0x7b, 0xa6,
    0x87, 0xb2, 0xa2, 0xb8, 0xb4, 0x88, 0xc2, 0xe3, 0xac, 0x96,
    0x8d, 0x86, 0x77, 0xbb, 0x93, 0xa3, 0x79, 0xb1, 0xb1, 0x9d,
    0xa3, 0x7f, 0x9e, 0xae, 0x85, 0x94, 0x81, 0x9a, 0x95, 0xa8,
    0xb4, 0x93, 0x95, 0xab, 0xa0, 0x8e, 0x8e, 0xac, 0x93, 0xa4,
    0x8b, 0xab, 0xb3, 0x9b, 0x98, 0xa5, 0x92, 0xb9, 0x94, 0x93,
    0x82, 0x9f, 0xa8, 0x8a, 0xac, 0xbd, 0x9c, 0xa9, 0x9c, 0xa5,
    0x82, 0xb4, 0x9a, 0x9b, 0x92, 0xaf, 0xb1, 0x8b, 0x93, 0x85,
    0x81, 0xa8, 0x99, 0xae, 0x96, 0xb7, 0xaa, 0x84, 0xb7, 0xd8,
    0xbb, 0xa6, 0x8f, 0x94, 0x73, 0xc5, 0x94, 0xae, 0xa8, 0xab,
    0xa6, 0xd4, 0xbb, 0x9a, 0xc7, 0xb2, 0x72, 0x88, 0x9d, 0x84,
    0x8f, 0xbe, 0x86, 0x8b, 0xb0, 0xaa, 0x92, 0x85, 0x92, 0xc0,
    0xa1, 0xbd, 0x8c, 0xa7, 0xbe, 0xc3, 0x89, 0x7d, 0x9b, 0xae,
    0x7f, 0x78, 0x94, 0x75, 0x95, 0x9b, 0x99, 0x94, 0xcc, 0xb4,
    0x95, 0x94, 0x8f, 0x9a, 0xa0, 0x91, 0xa7, 0xb6, 0xb8, 0xa4,
    0xb4, 0x72, 0x97, 0xa6, 0x8f, 0x82, 0x77, 0xa7, 0xa2, 0x97,
    0x87, 0x90, 0xad, 0xbd, 0x71, 0x74, 0x7d, 0x9c, 0xb1, 0x94,
    0x9b, 0xb1, 0x9d, 0xaa, 0xdb, 0x39, 0xb0, 0x7b, 0xa6, 0x7c,
    0xa1, 0x97, 0x9a, 0xbd, 0x99, 0x4a, 0x88, 0xa9, 0x8e, 0x7d,
    0xc0, 0xb1, 0x73, 0xb6, 0xb2, 0xc2, 0xb9, 0xb4, 0xd4, 0x78,
    0x74, 0x97, 0x6c, 0x86, 0x7e, 0x9c, 0xa4, 0x78, 0xb5, 0xac,
    0x92, 0xaa, 0xa6, 0x93, 0x89, 0xbc, 0x7b, 0xa7, 0xb5, 0xa5,
    0xa9, 0xb8, 0xc7, 0xa1, 0x7f, 0x9c, 0xc3, 0xa9, 0xac, 0x8d,
    0xb0, 0xa0, 0x8d, 0xd8, 0x96, 0xbf, 0x63, 0x98, 0x9a, 0xae,
    0x83, 0x87, 0x8d, 0x7d, 0x98, 0xa5, 0xab, 0x81, 0xcf, 0xa9,
    0x6f, 0x9b, 0x93, 0x8a, 0x8c, 0xac, 0xb1, 0x4a, 0x66, 0xc1,
    0xa2, 0xaf, 0xa0, 0xa9, 0x77, 0xaa, 0x90, 0xb9, 0xa1, 0xd4,
    0x86, 0x8d, 0xc8, 0xb0, 0x7a, 0x74, 0x7c, 0xaa, 0x98, 0x9e,
    0xab, 0x4b, 0xc1, 0x90, 0x92, 0xb1, 0x6e, 0xbd, 0x93, 0x9c,
    0x75, 0xa2, 0x9a, 0x81, 0x9c, 0xc1, 0x8e, 0x90, 0x80, 0x94,
    0xaa, 0x72, 0x98, 0xa5, 0x80, 0xbb, 0x89, 0x93, 0x8e, 0x9e,
    0x12, 0xc5, 0x6c, 0x8a, 0xae, 0xab, 0x72, 0x85, 0xac, 0xbc,
    0xca, 0x95, 0xb4, 0x90, 0xb8, 0x9f, 0xa3, 0x86, 0xaa, 0xcd,
    0x91, 0x8c, 0x9b, 0x96, 0xb3, 0xb2, 0x93, 0xad, 0xaa, 0xbe,
    0x93, 0x93, 0xb7, 0xa1, 0xc4, 0x86, 0x9f, 0xa5, 0xaa, 0xaf,
    0x96, 0xa9, 0xb0, 0x8f, 0x85, 0x84, 0x89, 0x78, 0xaa, 0xac,
    0x86, 0xb5, 0x7a, 0x9f, 0xa8, 0xb8, 0x94, 0xd5, 0xa7, 0x9e,
    0xaf, 0xa2, 0x8a, 0x8d, 0xa6, 0x90, 0x9e, 0xae, 0xb8, 0x94,
    0xa0, 0xa6, 0xa6, 0xa8, 0xa5, 0xcb, 0x98, 0xb0, 0x8b, 0x9c,
    0xa8, 0xb1, 0xb5, 0x9a, 0x90, 0x94, 0x9d, 0x91, 0xa2, 0x92,
    0xac, 0xc7, 0x95, 0x84, 0x93, 0x90, 0xa5, 0x9e, 0x99, 0xa2,
    0xa2, 0xb0, 0x8a, 0xa2, 0xa4, 0xa1, 0xb7, 0x92, 0x9d, 0x92,
    0xa7, 0x9c, 0x93, 0xa7, 0xa6, 0x96, 0x81, 0x7f, 0x9e, 0xaa,
    0xbb, 0xad, 0x9a, 0x8e, 0x96, 0xac, 0x93, 0xb0, 0x9e, 0xd7,
    0xae, 0x81, 0xc9, 0x94, 0x83, 0x9f, 0x9a, 0x9b, 0x9c, 0xb1,
    0xac, 0x9b, 0xa1, 0xa2, 0x9f, 0xa2, 0xa4, 0xbf, 0xa3, 0xb6,
    0x7d, 0x92, 0x9b, 0xbb, 0xb0, 0x9e, 0xb2, 0xa4, 0xa7, 0x9f,
    0xac, 0x8e, 0xa0, 0xd3, 0xa0, 0x94, 0x99, 0xa3, 0xce, 0x9e,
    0x91, 0x9e, 0x9f, 0xbb, 0x86, 0xa8, 0xab, 0xac, 0xb5, 0x98,
    0xa0, 0xb0, 0xaa, 0xa8, 0x99, 0x9c, 0x96, 0xbc, 0x97, 0x8c,
    0x99, 0x95, 0xb5, 0xae, 0x97, 0xb0, 0x95, 0x9f, 0x85, 0xa8,
    0x8f, 0xcc, 0xb6, 0x91, 0xbb, 0x94, 0x8c, 0x9b, 0xaa, 0x8f,
    0xa2, 0xae, 0xa1, 0x94, 0xa0, 0x9d, 0xa8, 0xac, 0x98, 0xca,
    0x99, 0x93, 0xb5, 0xc1, 0xb5, 0xae, 0x9b, 0x8d, 0x98, 0xac,
    0x96, 0x99, 0x9c, 0xa9, 0xa2, 0x7b, 0xa8, 0x9d, 0x9b, 0x94,
    0x8e, 0x88, 0x9f, 0x87, 0xa0, 0x95, 0xa6, 0xb9, 0xa2, 0xaa,
    0x94, 0xa8, 0x97, 0x92, 0x98, 0x90, 0x90, 0xac, 0xab, 0x77,
    0xaf, 0xa1, 0x96, 0xa1, 0xb4, 0x76, 0xa7, 0xa1, 0xa8, 0x8d,
    0x99, 0xba, 0xd5, 0x9e, 0xb8, 0x9d, 0x87, 0x78, 0xb4, 0x83,
    0x72, 0xbf, 0x50, 0x6c, 0x78, 0xb1, 0xa9, 0xac, 0xd9, 0x8a,
    0x9b, 0x70, 0xa9, 0x96, 0xa0, 0xbc, 0xa6, 0xb0, 0x8b, 0x8c,
    0xa5, 0x9f, 0x98, 0x95, 0x8f, 0xb4, 0x9e, 0x8d, 0xb3, 0xaf,
    0x94, 0xa9, 0x9d, 0x9f, 0xa0, 0x8f, 0xa2, 0x8c, 0xc6, 0xa1,
    0x9c, 0xa8, 0x95, 0x9a, 0xa8, 0x93, 0x99, 0x90, 0xa8, 0xa7,
    0xb4, 0x96, 0xb0, 0x99, 0xa2, 0x99, 0xa2, 0x88, 0xad, 0xa4,
    0x94, 0x8a, 0x90, 0xce, 0xd6, 0xa7, 0xbe, 0xa1, 0x8d, 0x77,
    0xaa, 0x7d, 0x83, 0xbc, 0x61, 0x66, 0x83, 0xc2, 0xa3, 0xb9,
    0xd0, 0x82, 0x9f, 0x5f, 0xa1, 0x83, 0xb4, 0xbd, 0xaa, 0xb0,
    0x9d, 0x88, 0xa4, 0x9f, 0x98, 0x9e, 0x9c, 0xa8, 0x9a, 0x82,
    0xb1, 0x8b, 0x9d, 0xac, 0x86, 0x98, 0xab, 0x9d, 0xa3, 0x87,
    0xb7, 0xb5, 0x98, 0x99, 0xac, 0x9d, 0xa3, 0x93, 0x9a, 0x89,
    0x9c, 0xb3, 0x9f, 0x93, 0xae, 0x96, 0xa9, 0x97, 0xae, 0x8f,
    0xae, 0xa4, 0x96, 0x92, 0x95, 0xc3, 0xc2, 0xab, 0xbc, 0x8d,
    0x8f, 0x7a, 0xb4, 0x6f, 0x85, 0xc2, 0x64, 0x64, 0x86, 0xb9,
    0xa8, 0xa2, 0xbe, 0x78, 0xa6, 0x5c, 0x8d, 0xae, 0xac, 0x9c,
    0x8e, 0x81, 0x94, 0xb7, 0x8b, 0x86, 0x99, 0x9e, 0x96, 0x9d,
    0xa9, 0xb3, 0x94, 0xae, 0x93, 0xa3, 0xa7, 0xbd, 0x93, 0xa5,
    0x84, 0xa2, 0xaa, 0x9c, 0x8b, 0xa6, 0x95, 0xad, 0x95, 0x95,
    0x8d, 0x95, 0x9a, 0x8b, 0xa1, 0xcf, 0xaf, 0xbe, 0x95, 0xb1,
    0x86, 0xb9, 0x91, 0x9f, 0xaa, 0xbc, 0x9c, 0x7a, 0x7e, 0x83,
    0x8a, 0x96, 0x9e, 0xab, 0x9a, 0xbc, 0xb6, 0x8b, 0xd9, 0xd9,
    0xaf, 0x95, 0x7f, 0x85, 0x70, 0xaf, 0x95, 0x9c, 0x86, 0xb7,
    0xac, 0x95, 0x9b, 0x80, 0xaa, 0xb4, 0x95, 0x87, 0x91, 0xa7,
    0xa0, 0x98, 0x9c, 0xb4, 0x98, 0xad, 0x9d, 0x9a, 0x9b, 0xa7,
    0x89, 0xae, 0x82, 0xa6, 0xac, 0xaa, 0xa3, 0xa8, 0xa3, 0xb3,
    0x8d, 0x9a, 0x8e, 0x9b, 0xa1, 0x86, 0xa7, 0xd6, 0xa1, 0xbe,
    0x8f, 0x9a, 0x95, 0xa5, 0x8b, 0xa1, 0xa7, 0xa2, 0xb0, 0x6b,
    0x77, 0x87, 0x80, 0x9a, 0x8b, 0xb6, 0xa0, 0xb9, 0xbe, 0x85,
    0xc7, 0xe1, 0xa9, 0x91, 0x85, 0x85, 0x7d, 0xbe, 0x89, 0xb4,
    0x79, 0xb6, 0xb1, 0x9d, 0x98, 0x78, 0x9d, 0xb6, 0x86, 0x8a,
    0x8f, 0x94, 0x91, 0x9f, 0xa9, 0xa5, 0x90, 0xc7, 0xa0, 0x90,
    0xa2, 0xa2, 0x94, 0xa7, 0x82, 0xac, 0xb5, 0x9f, 0x92, 0xa5,
    0x91, 0xaa, 0x92, 0x91, 0x8b, 0xa6, 0xa3, 0x8c, 0xac, 0xaf,
    0xa0, 0xbf, 0x92, 0xa5, 0x7a, 0xbd, 0x98, 0xaa, 0x94, 0xbb,
    0xaa, 0x89, 0x96, 0x7d, 0x83, 0xab, 0x95, 0xaf, 0x92, 0xb8,
    0xab, 0x8a, 0xc8, 0xe1, 0xb3, 0x9a, 0x8d, 0x96, 0x77, 0xc3,
    0x93, 0xa9, 0x9a, 0xb1, 0x99, 0xde, 0xdf, 0x76, 0xe4, 0xb4,
    0x65, 0x80, 0x9d, 0x77, 0x94, 0xa1, 0xae, 0xa3, 0xa6, 0xc4,
    0x6f, 0x9c, 0x9b, 0xc1, 0x8c, 0x98, 0x84, 0xa1, 0xd1, 0xbd,
    0x9b, 0x8a, 0x85, 0x9d, 0x7c, 0x80, 0xa1, 0x89, 0x7f, 0x9b,
    0x95, 0x82, 0xbc, 0xaa, 0xaa, 0x8c, 0x9d, 0xa2, 0x8d, 0x74,
    0x94, 0xb1, 0xc9, 0xa2, 0xc2, 0x69, 0x9b, 0xa2, 0x8c, 0x6e,
    0x9f, 0x8e, 0x99, 0x92, 0x72, 0x6f, 0xa9, 0xc7, 0x6c, 0x7e,
    0x87, 0x90, 0x92, 0x81, 0x85, 0x9c, 0xb2, 0xcb, 0xe7, 0x3e,
    0xa6, 0x73, 0x9e, 0x90, 0x76, 0xab, 0x86, 0xbb, 0xa0, 0x51,
    0xb1, 0xa4, 0x7d, 0x8a, 0xc2, 0xae, 0x8b, 0xb2, 0x8b, 0xc6,
    0xbb, 0xb7, 0xe9, 0x94, 0x78, 0x89, 0x56, 0x7a, 0x7b, 0x86,
    0x9e, 0x6e, 0xb5, 0xab, 0xbe, 0xa4, 0xa7, 0xa5, 0x87, 0xc7,
    0x75, 0x98, 0xb5, 0xc0, 0xcb, 0xa5, 0xcb, 0xb5, 0x70, 0x97,
    0xb9, 0xae, 0x99, 0x83, 0xb7, 0x99, 0x69, 0xbd, 0x8b, 0x9e,
    0x4e, 0x7a, 0xb0, 0x9b, 0x90, 0x87, 0x83, 0x6e, 0xba, 0xb6,
    0xba, 0x94, 0xcc, 0x90, 0x72, 0x9a, 0x9f, 0x85, 0x8b, 0xb0,
    0xb2, 0x44, 0x7b, 0xc4, 0x88, 0x9d, 0x9b, 0xa3, 0x7d, 0xa4,
    0x8d, 0xab, 0xb3, 0xc1, 0xa2, 0x98, 0xb8, 0x9f, 0x78, 0x76,
    0x86, 0x94, 0xa0, 0xa6, 0xad, 0x44, 0xb5, 0xb2, 0x84, 0xb0,
    0x68, 0x9d, 0xa8, 0xa5, 0x83, 0xa7, 0x9e, 0x7b, 0xbc, 0xba,
    0x9f, 0x88, 0x6b, 0x77, 0x9b, 0x76, 0xac, 0xac, 0x51, 0x92,
    0x87, 0xb0, 0x9f, 0x9c, 0x00, 0xda, 0x6a, 0x85, 0xaf, 0x8f,
    0x8a, 0xaf, 0xa7, 0xba, 0x9d, 0x82, 0xb6, 0xb2, 0xa6, 0xa6,
    0xaa, 0xa4, 0x95, 0x8a, 0x9f, 0x9d, 0xa1, 0x99, 0x9f, 0x8d,
    0xa0, 0x9b, 0xaa, 0x9a, 0x9f, 0xa1, 0xa9, 0x9f, 0xa6, 0x91,
    0xa4, 0xae, 0xb0, 0xa4, 0x9b, 0xbc, 0xa9, 0x70, 0x9f, 0x7e,
    0xa7, 0x8e, 0xb0, 0x81, 0xa7, 0xa5, 0xa3, 0x80, 0x8a, 0xc3,
    0xc6, 0xb4, 0xb0, 0xaf, 0x9c, 0x8a, 0xa3, 0x88, 0x8b, 0xb5,
    0x61, 0x6e, 0x83, 0x97, 0xb9, 0xbd, 0xd9, 0x84, 0xae, 0x99,
    0xba, 0x85, 0x85, 0xb3, 0x9a, 0xc4, 0x91, 0xa0, 0xad, 0xac,
    0xaa, 0x9a, 0x9b, 0xa1, 0x9b, 0x99, 0xa8, 0x81, 0x9e, 0xa1,
    0xa2, 0x96, 0xb4, 0x94, 0xb6, 0x8e, 0x88, 0x94, 0x9f, 0x93,
    0x93, 0x86, 0xb4, 0xa5, 0xb4, 0xa1, 0x99, 0xb6, 0x93, 0x68,
    0x98, 0x88, 0xa6, 0xa8, 0xaa, 0x8e, 0xab, 0x9c, 0x8c, 0x8f,
    0x89, 0xd7, 0xc6, 0xbb, 0xbd, 0x9a, 0xae, 0x82, 0xa0, 0x81,
    0x80, 0xb8, 0x76, 0x55, 0x92, 0xb8, 0xb9, 0xba, 0xc7, 0x7a,
    0xb6, 0x8a, 0xb5, 0x96, 0x98, 0x98, 0xa0, 0xbe, 0x96, 0x88,
    0xb9, 0xab, 0xab, 0xa8, 0xa2, 0x9a, 0x95, 0x96, 0xa9, 0x7e,
    0x97, 0xac, 0x9b, 0x92, 0xaa, 0x9c, 0xb8, 0x89, 0x90, 0x9d,
    0xa7, 0x8a, 0xb1, 0x8f, 0xa7, 0xb1, 0xab, 0x9c, 0x99, 0xaf,
    0xa3, 0x92, 0x95, 0x94, 0xac, 0x9c, 0xc6, 0x81, 0xa2, 0x9c,
    0xa6, 0x8d, 0x7c, 0xbe, 0xab, 0xb7, 0xc0, 0x8e, 0xab, 0x8b,
    0xae, 0x87, 0x8d, 0xb8, 0x79, 0x53, 0x87, 0xa2, 0xb1, 0xb1,
    0xc4, 0x77, 0xa0, 0x8f, 0xa7, 0xb4, 0x97, 0x7c, 0x71, 0xaa,
    0x71, 0x99, 0xcc, 0xbb, 0x9b, 0xbf, 0xaf, 0x82, 0x93, 0xc1,
    0x92, 0x9a, 0xae, 0x9b, 0xa2, 0xad, 0x92, 0xa5, 0xca, 0xbc,
    0x93, 0x6b, 0xb3, 0xaa, 0xb9, 0x85, 0xae, 0xbd, 0xb6, 0xb6,
    0xae, 0x93, 0xa2, 0xd3, 0x6c, 0x7c, 0x8c, 0xba, 0xa7, 0x93,
    0x9c, 0xbb, 0x9a, 0x8d, 0x9c, 0x8d, 0x76, 0xca, 0x90, 0x9d,
    0xbc, 0xc6, 0x9e, 0xae, 0xaa, 0x91, 0xeb, 0xff, 0xa6, 0x86,
    0xc8, 0xae, 0x98, 0xb6, 0xa8, 0xbe, 0xb0, 0xa5, 0x96, 0x66,
    0x6c, 0xd3, 0x97, 0xab, 0xb0, 0xb4, 0xae, 0x97, 0xa0, 0x7f,
    0x91, 0xd7, 0xa4, 0x8d, 0xa3, 0xac, 0x95, 0x86, 0xb8, 0x9e,
    0x9b, 0x81, 0x83, 0x85, 0x73, 0xac, 0xc2, 0xa6, 0xa7, 0x9c,
    0xc1, 0xac, 0x9f, 0xc4, 0x84, 0xa1, 0x87, 0x8f, 0x99, 0x9f,
    0x9d, 0x8c, 0xaf, 0xa7, 0x87, 0x89, 0x97, 0x71, 0x69, 0x81,
    0xc7, 0x95, 0x89, 0x93, 0x93, 0xb6, 0x99, 0x70, 0xf0, 0x7c,
    0xa8, 0x9a, 0xe3, 0xb2, 0xa0, 0x98, 0xc1, 0xdc, 0xac, 0xd8,
    0x9c, 0x7e, 0x88, 0xa0, 0x65, 0xb3, 0xba, 0xa8, 0x90, 0xa4,
    0xae, 0x8c, 0xa0, 0xf1, 0xb7, 0x8d, 0xaa, 0x9a, 0x9d, 0x9f,
    0xbe, 0xb1, 0xab, 0x91, 0x7e, 0x82, 0x9a, 0xac, 0x89, 0xa0,
    0xb2, 0xbe, 0xb0, 0x98, 0xbd, 0x79, 0x9e, 0xf2, 0x76, 0x86,
    0xb0, 0xa1, 0xb4, 0x94, 0x97, 0x9b, 0xc5, 0xa8, 0x95, 0xa2,
    0x88, 0x74, 0xb0, 0x9e, 0xc5, 0xbc, 0x92, 0xcf, 0x9c, 0x7e,
    0xed, 0xca, 0xc5, 0x96, 0xb0, 0x93, 0xfb, 0x8f, 0xcc, 0xe4,
    0x9b, 0x92, 0x9f, 0xa7, 0x92, 0x7e, 0x7c, 0x9c, 0x9e, 0xb7,
    0x96, 0x9b, 0xa2, 0xac, 0x90, 0x71, 0xa6, 0x91, 0xb6, 0xb7,
    0x82, 0x87, 0xbb, 0x72, 0xa3, 0x8f, 0x95, 0x9b, 0x87, 0x94,
    0x86, 0x9e, 0xa7, 0xa7, 0x97, 0xa7, 0xa3, 0x9f, 0x8f, 0x87,
    0x9f, 0x8b, 0xb1, 0xba, 0x93, 0x90, 0xbb, 0x7c, 0xbc, 0x92,
    0x81, 0x8a, 0xa2, 0x71, 0x90, 0xa0, 0xa0, 0xa0, 0xb8, 0xa3,
    0x9c, 0xb2, 0x8c, 0x7f, 0x82, 0x9c, 0xb6, 0xa3, 0x9a, 0x97,
    0xa8, 0x5d, 0xae, 0x86, 0xa7, 0x9b, 0x8f, 0x80, 0x80, 0x95,
    0xb1, 0xb2, 0xb1, 0xb5, 0x91, 0xa8, 0x8a, 0x5f, 0xa0, 0xa9,
    0xbf, 0xae, 0x8a, 0x99, 0xbe, 0x7e, 0xaa, 0x8b, 0x93, 0x8f,
    0x8f, 0x8f, 0x8b, 0xa0, 0xb2, 0xb8, 0xb9, 0xac, 0xa2, 0xa1,
    0x93, 0x80, 0xad, 0x92, 0xb3, 0xa2, 0x8a, 0x93, 0xc0, 0x95,
    0xaf, 0x98, 0x83, 0x93, 0x9b, 0x5e, 0x86, 0xa7, 0x93, 0xae,
    0xc3, 0xa9, 0x94, 0xaa, 0x91, 0x6d, 0x9b, 0x89, 0xb2, 0xb9,
    0x8d, 0x90, 0xaf, 0x78, 0xa8, 0x89, 0x9e, 0xa0, 0x90, 0x80,
    0x8a, 0x8c, 0x9d, 0xaa, 0xa3, 0xa8, 0x98, 0xa6, 0x97, 0x62,
    0xae, 0x96, 0xa9, 0xa8, 0x77, 0xa0, 0xac, 0x97, 0x9e, 0x84,
    0x92, 0x83, 0x8c, 0x8b, 0x86, 0x9c, 0xa6, 0xaf, 0xa9, 0xa1,
    0x94, 0x9e, 0x90, 0x68, 0x9e, 0x82, 0xa8, 0xb1, 0x8c, 0x9e,
    0xad, 0x86, 0xb6, 0x97, 0x97, 0x8c, 0xa8, 0x6b, 0x84, 0xa3,
    0x9b, 0xb3, 0xb2, 0xa6, 0x8e, 0xae, 0x8d, 0x74, 0xa3, 0x9f,
    0xac, 0xa9, 0x91, 0x94, 0xa4, 0x7e, 0x99, 0xaa, 0x96, 0x85,
    0x94, 0x9a, 0xad, 0xb8, 0xa2, 0x8c, 0x9a, 0xa0, 0x9d, 0x94,
    0xab, 0xc7, 0x93, 0xa1, 0x9a, 0x9e, 0xb1, 0xb5, 0x91, 0xb9,
    0x9c, 0xac, 0x9f, 0x8e, 0x9a, 0x9b, 0xa6, 0xa4, 0x99, 0x9d,
    0x9c, 0xa4, 0xa8, 0x83, 0x97, 0xbf, 0x98, 0xb5, 0x9e, 0x9c,
    0x97, 0xbb, 0x8e, 0xab, 0x91, 0xb2, 0xbd, 0x85, 0x71, 0xa8,
    0x8c, 0x98, 0xa5, 0xb8, 0x8a, 0xaa, 0xbe, 0x7d, 0xe8, 0xde,
    0xc8, 0x9d, 0x88, 0x8a, 0x72, 0xb8, 0x9d, 0xd4, 0x95, 0xb4,
    0xa9, 0x82, 0x9e, 0x96, 0xb1, 0xad, 0x95, 0x97, 0x9d, 0xa1,
    0xaa, 0x90, 0xab, 0xbe, 0x89, 0xa6, 0x99, 0x8e, 0xa5, 0x99,
    0x87, 0xb3, 0x91, 0xaf, 0x9b, 0x9d, 0x9f, 0x9a, 0xab, 0xaf,
    0x90, 0x9c, 0x9b, 0xa1, 0x97, 0x91, 0x9b, 0xbb, 0x8c, 0xb5,
    0x94, 0x9f, 0xad, 0xa8, 0x89, 0x9c, 0x9b, 0xaf, 0xbc, 0x70,
    0x6c, 0x98, 0x8f, 0x98, 0x9f, 0xb7, 0x91, 0xb5, 0xbb, 0x81,
    0xda, 0xe9, 0xb2, 0x7e, 0x89, 0x83, 0x85, 0xb6, 0x92, 0xd3,
    0x8a, 0xb1, 0x99, 0x85, 0x99, 0x94, 0xa5, 0xb1, 0x91, 0x9b,
    0xa0, 0x9a, 0xa2, 0x96, 0xb1, 0xcc, 0x8a, 0xbd, 0x9e, 0x96,
    0xba, 0xa2, 0x96, 0xa8, 0x95, 0xc7, 0x8f, 0x9e, 0x9c, 0xa8,
    0x97, 0x9e, 0x98, 0x98, 0xa2, 0xa8, 0xa1, 0x96, 0x9e, 0xb0,
    0x91, 0xa6, 0x8d, 0xa2, 0x93, 0xb4, 0x95, 0xac, 0x9b, 0xb7,
    0xa9, 0x81, 0x83, 0x96, 0x93, 0xad, 0xa4, 0xad, 0x8a, 0xb8,
    0xb2, 0x82, 0xdd, 0xe5, 0xb6, 0x97, 0x8c, 0x95, 0x8a, 0xbe,
    0x94, 0xd8, 0x98, 0xa7, 0xa0, 0x8e, 0x8c, 0x9b, 0xa9, 0xb7,
    0x9b, 0x8a, 0xa1, 0x9f, 0xa2, 0x8d, 0xa0, 0xc4, 0x93, 0xa3,
    0x9a, 0x99, 0xb2, 0xb8, 0x94, 0xbf, 0x9a, 0xae, 0x9b, 0x8c,
    0x9e, 0x9b, 0xa8, 0xa4, 0x9b, 0x9c, 0x9b, 0xa7, 0xa6, 0x8e,
    0x93, 0xbe, 0x96, 0xab, 0x9d, 0x9c, 0x93, 0xba, 0x8c, 0xa8,
    0x8c, 0xb9, 0xc0, 0x8a, 0x71, 0xa9, 0x8c, 0x96, 0xa2, 0xb8,
    0x81, 0xae, 0xbd, 0x7f, 0xe9, 0xdd, 0xca, 0xa8, 0x84, 0x85,
    0x70, 0xb3, 0x96, 0xdb, 0x8d, 0xb1, 0xa3, 0x84, 0x9c, 0x92,
    0xaf, 0xb0, 0x91, 0x93, 0x98, 0xa0, 0xb0, 0x8d, 0xa8, 0xb2,
    0x8c, 0xa9, 0x97, 0x8c, 0xa6, 0xa1, 0x88, 0xbe, 0x99, 0xb4,
    0xa3, 0x9f, 0x9c, 0x97, 0xab, 0xa0, 0x92, 0x9d, 0x95, 0x9b,
    0x9b, 0x92, 0x9d, 0xac, 0x8b, 0xae, 0x94, 0x9f, 0xab, 0xa2,
    0x91, 0x9e, 0xa4, 0xb1, 0xb1, 0x73, 0x6f, 0xab, 0x8d, 0x98,
    0xa3, 0xb3, 0x8b, 0xaf, 0xbb, 0x7c, 0xd7, 0xed, 0xb0, 0x83,
    0x8d, 0x7e, 0x86, 0xba, 0x8e, 0xd8, 0x91, 0xb7, 0x98, 0x8d,
    0x9f, 0x96, 0xa9, 0xbb, 0x91, 0x97, 0x9c, 0x98, 0xa0, 0x97,
    0xaf, 0xc0, 0x8e, 0xb8, 0x9d, 0x92, 0xbb, 0xa1, 0x93, 0xa6,
    0x8f, 0xbe, 0x9e, 0x9d, 0x9f, 0xac, 0x9b, 0xa6, 0x96, 0x97,
    0xa4, 0xa5, 0x9e, 0x92, 0xab, 0xae, 0x98, 0xa9, 0x89, 0x9b,
    0x96, 0xb6, 0x90, 0xa8, 0x94, 0xb2, 0xba, 0x86, 0x7d, 0x9c,
    0x8b, 0xac, 0xa0, 0xb5, 0x84, 0xbb, 0xb8, 0x7e, 0xda, 0xed,
    0xb6, 0x9c, 0x88, 0x91, 0x8b, 0xc8, 0x91, 0xd7, 0x8f, 0xcc,
    0xea, 0xbe, 0x74, 0xeb, 0xf2, 0x3e, 0x8a, 0x01, 0x9f, 0x3e,
    0xd4, 0x37, 0xce, 0xbe, 0x3a, 0x2a, 0xb2, 0x3e, 0x1c, 0x2a,
    0xd8, 0x3e, 0x1b, 0xc1, 0x97, 0x3e, 0x69, 0x21, 0xc4, 0xbe,
    0x46, 0xa3, 0xbb, 0xbe, 0x76, 0xc0, 0x1a, 0xbe, 0x9e, 0x09,
    0x29, 0xbd, 0x9e, 0xaa, 0x04, 0xbe, 0x54, 0x72, 0xa8, 0x3e,
    0x5c, 0x7b, 0xeb, 0xbe, 0x7d, 0x3a, 0xd7, 0xbe, 0xe5, 0xeb,
    0x9c, 0x3e, 0xab, 0xe9, 0xab, 0xbe, 0xb6, 0x6d, 0xdb, 0xbe,
    0x4d, 0xf7, 0xa1, 0xbe, 0x98, 0x4f, 0x98, 0x3e, 0x46, 0x45,
    0x35, 0x3e, 0xb9, 0x25, 0xd4, 0xbe, 0x98, 0x8a, 0xfb, 0x3e,
    0x0b, 0x2d, 0xa0, 0x3e, 0x41, 0x43, 0xb6, 0xbe, 0x33, 0x9c,
    0x0a, 0x3f, 0x63, 0xe8, 0xc1, 0x3f, 0x2b, 0x54, 0x92, 0xbe,
    0xb3, 0xdc, 0xac, 0x3f, 0x8a, 0xea, 0x03, 0x3f, 0xbc, 0xf5,
    0x71, 0x3f, 0xca, 0x97, 0x24, 0xbf, 0xc1, 0xd6, 0xcc, 0xbf,
    0x18, 0x9d, 0x46, 0xbf, 0x5d, 0x44, 0x8e, 0x3e, 0x87, 0x2a,
    0x45, 0x3e, 0x18, 0x63, 0xa7, 0xbe, 0xbe, 0x6b, 0x6d, 0x3e,
    0xdb, 0x71, 0xc3, 0xbe, 0x9e, 0x73, 0x8f, 0xbe, 0x3c, 0x66,
    0x61, 0xbe, 0x53, 0xce, 0x7b, 0x3e, 0x54, 0x6d, 0x90, 0xbe,
    0x90, 0xab, 0xc2, 0xbe, 0x21, 0xc7, 0x0e, 0x3e, 0x38, 0x4a,
    0xc8, 0x3e, 0xdb, 0x98, 0xb3, 0x3e, 0x85, 0x2a, 0x28, 0x3e,
    0x58, 0x86, 0xae, 0xbe, 0xb1, 0x64, 0xa4, 0xbe, 0x93, 0xf3,
    0xc0, 0xbe, 0x58, 0x96, 0xa3, 0xbe, 0xbe, 0xc4, 0x37,
    0x3f, 0x1e, 0x05, 0xc5, 0xbe, 0x53, 0x12, 0x92, 0xbe,
    0x86, 0xa7, 0x6c, 0x3e, 0x33, 0xab, 0xe5, 0x3d, 0x3e,
    0xc5, 0xf6, 0x3e, 0x17, 0xee, 0x50, 0xbf, 0x72, 0xb4,
    0x7d, 0xbf, 0x07, 0x68, 0x64, 0xbf, 0xda, 0x82, 0xb2,
    0xbf, 0xc5, 0x02, 0x0b, 0x3f, 0x94, 0x02, 0x26, 0x3f
  };

  return AI_HANDLE_PTR(s_har_ign_wsdm_weights);
}

