#include "asc_data.h"

ai_handle ai_asc_data_weights_get(void)
{

  AI_ALIGNED(4)
  static const ai_u8 s_asc_weights[ 7836 ] = {
    0x4e, 0x81, 0x85, 0x42, 0xca, 0xdf, 0x2d, 0xe5, 0x21, 0x56,
    0x4b, 0x52, 0x25, 0x29, 0x28, 0x84, 0x83, 0x81, 0x45, 0xd7,
    0xf4, 0xbb, 0x8d, 0xf0, 0x7f, 0x48, 0xe1, 0x94, 0x81, 0x89,
    0x2b, 0xfa, 0x30, 0x3a, 0x3a, 0x55, 0x26, 0xdd, 0x54, 0x14,
    0xcc, 0xff, 0xb7, 0x81, 0x0e, 0x7f, 0xdb, 0xc4, 0x48, 0xc9,
    0xe9, 0x19, 0xea, 0xd9, 0x21, 0x7f, 0x12, 0xe5, 0x09, 0x20,
    0xb9, 0x9d, 0xa3, 0x68, 0x6c, 0x73, 0xf9, 0x08, 0xea, 0xa1,
    0x81, 0xa4, 0x96, 0xe2, 0x0e, 0x3f, 0x6b, 0x6e, 0x81, 0xc2,
    0x06, 0x0e, 0x29, 0x12, 0x66, 0x58, 0x7f, 0xbd, 0xbb, 0xb9,
    0xd2, 0xac, 0x8b, 0x1e, 0x0b, 0xfc, 0x5f, 0x40, 0x7f, 0xfd,
    0x81, 0x7f, 0xe1, 0xa9, 0x53, 0x3a, 0xc4, 0x26, 0xa2, 0xdf,
    0xbe, 0x0d, 0x15, 0x2f, 0x7a, 0x27, 0x7f, 0xf9, 0x6c, 0x7b,
    0xaa, 0xc9, 0xec, 0x81, 0x22, 0x5c, 0x81, 0x23, 0xa3, 0x2a,
    0x65, 0xff, 0xc0, 0x25, 0xf4, 0x09, 0x20, 0x14, 0x93, 0x9d,
    0x81, 0x54, 0x25, 0x62, 0xb3, 0xe8, 0xff, 0xff, 0x7e, 0x00,
    0x00, 0x00, 0x3c, 0xfe, 0xff, 0xff, 0x78, 0xfa, 0xff, 0xff,
    0x44, 0xf9, 0xff, 0xff, 0xa3, 0xf7, 0xff, 0xff, 0x31, 0x00,
    0x00, 0x00, 0x22, 0x00, 0x00, 0x00, 0x14, 0xfd, 0xff, 0xff,
    0x78, 0xf4, 0xff, 0xff, 0x91, 0xfb, 0xff, 0xff, 0xd5, 0xfa,
    0xff, 0xff, 0x78, 0xf8, 0xff, 0xff, 0x89, 0xf7, 0xff, 0xff,
    0x6d, 0xfe, 0xff, 0xff, 0x32, 0xf7, 0xff, 0xff, 0x5d, 0xd1,
    0x0e, 0xf4, 0xb4, 0xca, 0xce, 0xc5, 0x08, 0x10, 0x14, 0xf1,
    0x18, 0xdb, 0x0c, 0x64, 0x65, 0xd7, 0x01, 0xfa, 0xb1, 0x19,
    0xd1, 0xbc, 0x1f, 0xd6, 0xfe, 0x1d, 0x13, 0xd3, 0x13, 0x47,
    0x7f, 0xf6, 0x28, 0xfe, 0xcd, 0x1a, 0xe1, 0xc0, 0x1b, 0xd7,
    0xff, 0x4a, 0xfd, 0xf9, 0x0c, 0x79, 0xf4, 0xed, 0xd6, 0xc0,
    0xeb, 0xdc, 0xf9, 0xf1, 0x09, 0x02, 0xfb, 0xef, 0xea, 0xdf,
    0x07, 0xd1, 0xe5, 0xed, 0xe6, 0xad, 0xd4, 0x1b, 0xec, 0xf1,
    0x09, 0xed, 0xf2, 0xee, 0xe1, 0xed, 0xf2, 0x23, 0x07, 0xee,
    0x18, 0xbc, 0xb9, 0xcb, 0xd5, 0xfa, 0x53, 0x03, 0xea, 0x19,
    0x02, 0x2c, 0x08, 0xca, 0xe1, 0xec, 0xec, 0xd1, 0x20, 0x16,
    0x16, 0xfc, 0xc9, 0x01, 0x4a, 0xe6, 0x0f, 0x02, 0xdf, 0xdc,
    0xba, 0xf6, 0x26, 0xc2, 0x07, 0x1c, 0xda, 0x03, 0xe5, 0xcb,
    0xde, 0x2d, 0x14, 0xd6, 0x0d, 0x2a, 0xd1, 0xe1, 0xe1, 0xf8,
    0x19, 0xf9, 0xe8, 0xed, 0xe7, 0x02, 0x11, 0xdb, 0xf0, 0x10,
    0xbf, 0xfc, 0x05, 0x17, 0xad, 0xd7, 0xc9, 0x1b, 0xe9, 0xf5,
    0xa7, 0x0b, 0xf5, 0xdf, 0x39, 0x86, 0x8c, 0x3e, 0xd7, 0x0a,
    0x1d, 0xe8, 0xd5, 0x00, 0xb5, 0xf6, 0x9c, 0xea, 0xee, 0x02,
    0xe9, 0x97, 0x97, 0xe3, 0x0a, 0x0f, 0x0d, 0xec, 0xad, 0xf4,
    0xe3, 0xf0, 0x97, 0x12, 0x16, 0xfd, 0x3d, 0xd8, 0x82, 0x7d,
    0x2c, 0x33, 0xb4, 0xe6, 0x42, 0xb9, 0x52, 0x20, 0xc0, 0x15,
    0xb6, 0xde, 0xe9, 0xe9, 0xf1, 0xfd, 0xaf, 0x0f, 0x24, 0x19,
    0x0e, 0x0d, 0xfa, 0x09, 0xaa, 0x54, 0xd8, 0xad, 0xd9, 0x1c,
    0xc5, 0x3c, 0x21, 0x31, 0xde, 0xc6, 0xd0, 0x18, 0x08, 0x7e,
    0xd1, 0xdc, 0xda, 0xe8, 0x23, 0xda, 0x9d, 0xb6, 0xcf, 0xee,
    0xde, 0xb6, 0xec, 0xc3, 0x33, 0xf4, 0xba, 0xb7, 0x81, 0xc6,
    0xa4, 0xc7, 0x02, 0xc1, 0x0d, 0xee, 0xf7, 0xc4, 0xe7, 0xdf,
    0x3a, 0xe7, 0xce, 0xe9, 0x95, 0xee, 0xc1, 0x05, 0xc8, 0xeb,
    0xba, 0xf7, 0x16, 0x93, 0xe6, 0xd7, 0x04, 0x00, 0xcb, 0x16,
    0x9e, 0xeb, 0xa2, 0xd5, 0xd9, 0x0b, 0xeb, 0xde, 0x32, 0xde,
    0x27, 0x2a, 0x21, 0xe6, 0x13, 0xcd, 0xbd, 0x49, 0x0c, 0x06,
    0xfa, 0xe8, 0x27, 0xe1, 0xcd, 0xe1, 0x32, 0x50, 0xf4, 0xe5,
    0x07, 0xdd, 0xf6, 0x2d, 0xc9, 0xcb, 0x3d, 0xb8, 0x1c, 0xe4,
    0x2a, 0xf0, 0x17, 0xf5, 0x11, 0xe4, 0xe1, 0xee, 0xfe, 0x33,
    0xcd, 0xbb, 0x17, 0xcd, 0x58, 0xf1, 0xf6, 0x08, 0x50, 0xd2,
    0x18, 0xc9, 0x0f, 0x11, 0x0f, 0xdf, 0xf5, 0x10, 0x17, 0x0f,
    0xf3, 0xe0, 0x16, 0xe5, 0x0c, 0x50, 0xf9, 0xd5, 0x02, 0xdb,
    0xe1, 0x29, 0xfa, 0x1a, 0xf4, 0xb5, 0x7f, 0xd3, 0x23, 0xea,
    0xfa, 0x10, 0x01, 0xd3, 0xc5, 0xc8, 0xf4, 0xfd, 0x17, 0xce,
    0x2c, 0x0f, 0x16, 0xc6, 0xed, 0x1f, 0x12, 0xff, 0x3b, 0xd8,
    0xea, 0xf9, 0xef, 0xe9, 0x18, 0x1a, 0xdc, 0xe7, 0x2b, 0xcd,
    0xf2, 0x3d, 0x45, 0xcb, 0x22, 0xf3, 0xe6, 0x0e, 0x12, 0x0a,
    0xec, 0xdc, 0x40, 0x29, 0x24, 0xf9, 0x2d, 0x27, 0xeb, 0x21,
    0xfc, 0xf0, 0x03, 0xd4, 0x38, 0x29, 0x43, 0xdb, 0x12, 0xec,
    0x71, 0xea, 0x18, 0x39, 0xfb, 0xf5, 0xeb, 0xe6, 0xe9, 0xee,
    0xf7, 0x2d, 0xf0, 0xe6, 0x0b, 0xe1, 0x7f, 0xd9, 0xf3, 0xfd,
    0x0f, 0x08, 0xec, 0xe7, 0x12, 0xe1, 0x03, 0xf2, 0xff, 0xd6,
    0xf9, 0xeb, 0x6c, 0xea, 0xf8, 0x14, 0x07, 0xf1, 0x07, 0xe8,
    0x04, 0xe6, 0xf0, 0x33, 0x00, 0x0d, 0x30, 0xe4, 0xf1, 0xca,
    0x04, 0xed, 0xf9, 0x1a, 0xf9, 0xcf, 0xd8, 0xf7, 0x27, 0xf0,
    0x09, 0xd5, 0x02, 0xea, 0x2a, 0xbe, 0xda, 0x11, 0xee, 0xf3,
    0xe7, 0xcb, 0xea, 0xed, 0x09, 0x08, 0x0f, 0xe3, 0x06, 0xe3,
    0xda, 0xc4, 0xd4, 0x01, 0x09, 0x05, 0xee, 0xc7, 0xe9, 0xf0,
    0x1b, 0xff, 0x1b, 0xf0, 0x16, 0x09, 0x0d, 0xf8, 0xe7, 0x0d,
    0xea, 0x0a, 0x00, 0xfa, 0xe0, 0x17, 0x12, 0xf3, 0xfd, 0x1c,
    0xd2, 0x15, 0x0d, 0xfa, 0xf7, 0x21, 0x06, 0xdc, 0xdc, 0x03,
    0xeb, 0x26, 0xe1, 0xe6, 0x2c, 0x04, 0xf3, 0x1b, 0xeb, 0xfd,
    0xf5, 0xf2, 0x05, 0x17, 0xfe, 0x06, 0xf7, 0x04, 0x26, 0xfe,
    0xfe, 0x12, 0xdc, 0x2f, 0x0a, 0xf6, 0x10, 0x20, 0xb6, 0xf0,
    0xc7, 0xbf, 0xf0, 0x09, 0x18, 0x1e, 0x2a, 0xbf, 0xed, 0x7f,
    0x7a, 0xe3, 0x0f, 0x1b, 0xdd, 0x05, 0xab, 0xc3, 0x19, 0x2b,
    0x09, 0x2c, 0xfe, 0xd8, 0xf1, 0x60, 0x7b, 0xe2, 0x4b, 0x0d,
    0xec, 0xed, 0xb1, 0xcf, 0x10, 0x04, 0x15, 0x05, 0x01, 0xe0,
    0x08, 0x2c, 0xdb, 0x0d, 0x33, 0xdf, 0xf2, 0xfa, 0xbe, 0x09,
    0xfd, 0x19, 0xf3, 0xd2, 0xd5, 0x03, 0xe1, 0xe7, 0xf3, 0x02,
    0x13, 0xc1, 0xcf, 0x1a, 0xc9, 0x0b, 0xe7, 0x01, 0xf0, 0xf1,
    0xcd, 0x0d, 0xd3, 0xd5, 0x06, 0x0c, 0xe6, 0xf4, 0xc5, 0xec,
    0xee, 0x01, 0x33, 0x1c, 0xe4, 0x0c, 0xfd, 0x37, 0xe6, 0xff,
    0xf8, 0x15, 0x41, 0x0e, 0x0b, 0xdd, 0x01, 0x13, 0x19, 0x0f,
    0x28, 0xf9, 0x1d, 0x07, 0x05, 0x2a, 0xf9, 0x10, 0xd8, 0x38,
    0x14, 0xea, 0x0b, 0xfa, 0xf3, 0x13, 0xf7, 0x0d, 0x09, 0xed,
    0xfa, 0x31, 0xd4, 0x09, 0x03, 0x30, 0xf6, 0x00, 0x2b, 0x25,
    0x1f, 0xe9, 0x14, 0xef, 0x00, 0x08, 0x1d, 0xf0, 0x2e, 0xcd,
    0xd9, 0xf8, 0x0e, 0x49, 0xf7, 0xd8, 0x10, 0x0a, 0xb2, 0x60,
    0xae, 0x1f, 0x0a, 0xd7, 0xff, 0xd6, 0xd3, 0xe9, 0x22, 0x0f,
    0x35, 0xd9, 0x10, 0xcf, 0xc2, 0x51, 0xd6, 0xf4, 0x61, 0xc8,
    0x0f, 0xf1, 0x03, 0xeb, 0x31, 0xfb, 0xff, 0xd5, 0x0a, 0xb5,
    0xaa, 0x7c, 0xe2, 0xfd, 0x1d, 0xdb, 0xca, 0xb9, 0xe5, 0xea,
    0x0f, 0x3a, 0x01, 0xa6, 0xd0, 0xb6, 0xcc, 0x45, 0xc6, 0xea,
    0x00, 0xfc, 0xd7, 0xbf, 0xec, 0xe7, 0x01, 0xd0, 0x0d, 0xb2,
    0x30, 0xe3, 0xc5, 0xe0, 0xef, 0xdd, 0x2a, 0xbc, 0x53, 0xc0,
    0xd3, 0x24, 0xf9, 0x3a, 0xd2, 0xa1, 0xe2, 0xb3, 0xcf, 0x03,
    0xce, 0x2a, 0x0b, 0xc2, 0x25, 0x88, 0xfa, 0xf3, 0xc2, 0x38,
    0xbb, 0x90, 0xd2, 0xc9, 0x32, 0x32, 0x4a, 0x24, 0xff, 0x04,
    0x01, 0x81, 0xe5, 0x0d, 0xcb, 0xc4, 0xb3, 0x9c, 0xd6, 0xd8,
    0x59, 0x1d, 0xf5, 0xe0, 0xef, 0xf0, 0xd2, 0x89, 0x21, 0xda,
    0x04, 0xe8, 0xe0, 0x85, 0xec, 0xdf, 0x2c, 0xef, 0x02, 0xf4,
    0xf2, 0xbb, 0xc1, 0x05, 0xe5, 0xf4, 0xb9, 0xe3, 0xe6, 0x04,
    0xa5, 0x01, 0xbd, 0xe9, 0xef, 0xde, 0xc8, 0x02, 0xfd, 0xf3,
    0xb3, 0xd6, 0xb1, 0x26, 0xe8, 0x07, 0xa9, 0x0e, 0xfb, 0xd5,
    0xcb, 0xdd, 0xb5, 0xc3, 0x09, 0xff, 0xc4, 0xd7, 0xf2, 0x03,
    0xda, 0xf8, 0x9d, 0x0e, 0xd8, 0xef, 0xdb, 0xd4, 0xfa, 0xcd,
    0x33, 0xde, 0xbd, 0xbf, 0xd1, 0x12, 0x05, 0xc9, 0xaf, 0xdb,
    0xd8, 0xc6, 0xe8, 0xc4, 0xbe, 0x4c, 0x10, 0xe8, 0xec, 0xad,
    0xe1, 0x2f, 0xd2, 0xd6, 0x96, 0xe5, 0xe5, 0x02, 0x1b, 0xb4,
    0xdc, 0x38, 0xe4, 0xce, 0x13, 0xcc, 0xd3, 0x1c, 0xb8, 0xc5,
    0x81, 0x26, 0x12, 0xee, 0x08, 0xd9, 0xcc, 0x17, 0xfd, 0xf9,
    0x30, 0x33, 0xba, 0xcc, 0xfc, 0xe9, 0xb7, 0x09, 0xfd, 0xd3,
    0xfa, 0xce, 0x07, 0xdd, 0x01, 0xf4, 0xbc, 0x1e, 0x06, 0xd9,
    0xf4, 0xe8, 0xb7, 0xe7, 0x1d, 0xe2, 0x0d, 0xbc, 0xf1, 0x19,
    0x0e, 0xf3, 0xd9, 0x33, 0xbb, 0x01, 0xae, 0xe8, 0xd1, 0x3a,
    0x11, 0xae, 0x28, 0xec, 0xc3, 0x57, 0xbc, 0x11, 0x2e, 0xc1,
    0xd8, 0xb2, 0xf7, 0x14, 0xcf, 0xd8, 0xa2, 0xa3, 0xb4, 0xb9,
    0xd6, 0x2c, 0x97, 0x0f, 0xc4, 0xd2, 0xda, 0xe4, 0xfb, 0x0a,
    0xce, 0xcc, 0xa4, 0x9e, 0xe9, 0xec, 0xd8, 0xff, 0xb6, 0x0b,
    0xf6, 0xdc, 0xd6, 0x9f, 0xfa, 0x0d, 0xda, 0xcd, 0x9b, 0xcd,
    0xc4, 0xcf, 0xdd, 0xbf, 0xb4, 0x05, 0x1e, 0xcb, 0x28, 0xee,
    0x22, 0x41, 0x18, 0xb4, 0xd2, 0xe3, 0xea, 0xa1, 0xe3, 0x0b,
    0xa7, 0x4d, 0xfe, 0xd2, 0x1e, 0xeb, 0x2a, 0xc9, 0x29, 0xcb,
    0x96, 0xf6, 0xc9, 0xb7, 0xed, 0x4a, 0xad, 0x11, 0x1d, 0xa6,
    0x24, 0xfd, 0x29, 0x59, 0x11, 0x93, 0xa9, 0xae, 0xba, 0xce,
    0xdc, 0x20, 0x09, 0x22, 0xc5, 0x35, 0x60, 0x23, 0x28, 0x02,
    0x76, 0xc2, 0xfb, 0x21, 0xe9, 0xd9, 0x21, 0x0b, 0x09, 0x23,
    0x22, 0x3d, 0xef, 0xf8, 0xf0, 0x22, 0x4a, 0x84, 0xc0, 0x14,
    0x90, 0xee, 0x61, 0x06, 0xd5, 0x17, 0xdd, 0x55, 0x59, 0xf9,
    0x3e, 0x04, 0x7f, 0x85, 0xc5, 0x25, 0xc5, 0xd0, 0x3b, 0x34,
    0x63, 0xd0, 0xf9, 0x28, 0x15, 0x27, 0xb0, 0xb8, 0x15, 0x03,
    0x0d, 0xdf, 0x1e, 0xd9, 0xfa, 0x65, 0xf5, 0xbe, 0xed, 0x39,
    0x13, 0xf8, 0xe1, 0xa1, 0xf7, 0xd6, 0xf9, 0x4a, 0xfa, 0xad,
    0x31, 0x19, 0x7f, 0xcd, 0x40, 0x07, 0xd9, 0x0b, 0xc1, 0xba,
    0xe9, 0x02, 0x07, 0x20, 0x00, 0x02, 0x42, 0x7d, 0xcb, 0xed,
    0x1d, 0xd2, 0x12, 0x03, 0xde, 0xd6, 0xea, 0x0e, 0xfb, 0xd5,
    0x0f, 0x02, 0xff, 0xe3, 0xd6, 0xe6, 0x23, 0xed, 0xe9, 0xb7,
    0xd0, 0xdf, 0xef, 0x03, 0xf6, 0x0e, 0xf8, 0x02, 0xca, 0x1f,
    0xc6, 0xd2, 0xcb, 0xdd, 0xe5, 0xd0, 0x02, 0xd6, 0xf3, 0x31,
    0xca, 0x29, 0x17, 0x00, 0x13, 0xde, 0x1d, 0xef, 0xd3, 0xbf,
    0x43, 0xd6, 0xdd, 0xf4, 0xb2, 0xdb, 0x0a, 0xd6, 0xf3, 0x08,
    0xf4, 0x3f, 0x3b, 0xf0, 0xc2, 0xbc, 0xf7, 0x2f, 0xfc, 0xe1,
    0xc6, 0x24, 0x23, 0xf4, 0xd7, 0xee, 0x02, 0x44, 0xfb, 0x00,
    0x1f, 0xb6, 0x14, 0x03, 0xe5, 0xf6, 0xe0, 0xed, 0x10, 0xd3,
    0x4c, 0xf0, 0xb1, 0xde, 0x6a, 0xed, 0x2d, 0x06, 0xf5, 0x15,
    0x0b, 0xf9, 0x6f, 0xfb, 0xd7, 0x42, 0xac, 0xd7, 0x20, 0x0d,
    0x3f, 0x0a, 0x26, 0xc0, 0xfa, 0x0a, 0x1f, 0xfc, 0xd8, 0x07,
    0xbe, 0x49, 0xe8, 0xc1, 0xf3, 0x23, 0x13, 0xfb, 0x17, 0x81,
    0xf8, 0x4c, 0xe0, 0xfc, 0x4f, 0xff, 0xd5, 0x44, 0x09, 0xe0,
    0x30, 0x05, 0x09, 0x13, 0xb2, 0xe2, 0x1c, 0x4c, 0x47, 0x12,
    0xaf, 0xf5, 0xa8, 0xe2, 0xef, 0x10, 0xd8, 0x07, 0x22, 0xfa,
    0x0c, 0xe0, 0xd8, 0x49, 0xdd, 0x11, 0x0c, 0xd7, 0xae, 0x47,
    0xed, 0x37, 0xc2, 0xc8, 0x13, 0xf7, 0x43, 0x9b, 0xe0, 0xe3,
    0xe2, 0x12, 0xf8, 0xf0, 0xe4, 0x0c, 0xef, 0xf7, 0x0e, 0xb7,
    0x21, 0xe2, 0xd5, 0x0f, 0x3f, 0x09, 0x2e, 0xff, 0x3e, 0x03,
    0xb7, 0x43, 0xc8, 0x34, 0x32, 0x0e, 0x22, 0x18, 0x08, 0x00,
    0x74, 0xe9, 0x4d, 0x05, 0xbb, 0xde, 0xba, 0x4e, 0xa7, 0xe9,
    0xfc, 0xcc, 0x35, 0xdd, 0x2a, 0xc2, 0x2b, 0xee, 0xef, 0xed,
    0xfe, 0xee, 0xd5, 0x0a, 0xe8, 0x23, 0xcb, 0x10, 0xbe, 0x30,
    0xf7, 0xd5, 0x20, 0x29, 0x0c, 0x18, 0x94, 0x05, 0xf5, 0xa1,
    0x17, 0x47, 0x8c, 0x3d, 0xbf, 0xed, 0xcd, 0xda, 0xf3, 0xce,
    0x50, 0x2e, 0xab, 0x10, 0xd5, 0xb7, 0xcc, 0x13, 0xd6, 0x06,
    0xbd, 0x29, 0x50, 0xc0, 0x1a, 0x05, 0x0c, 0x33, 0xac, 0xce,
    0xb7, 0xe7, 0xe3, 0x62, 0xc6, 0x5c, 0xe6, 0xf6, 0xc7, 0xf3,
    0xdd, 0xb9, 0xc0, 0xf6, 0x40, 0x01, 0x19, 0xf1, 0xde, 0xeb,
    0x40, 0xd6, 0xf6, 0x0e, 0x4e, 0x0c, 0xe6, 0xc1, 0x05, 0x06,
    0x51, 0x05, 0xcf, 0xd3, 0xf0, 0xd3, 0x52, 0x1a, 0xe6, 0xfa,
    0xfd, 0x0b, 0xe8, 0xc5, 0xc2, 0xf0, 0x7f, 0xf2, 0x03, 0x00,
    0xb1, 0xf6, 0x45, 0x03, 0xf7, 0x34, 0xf2, 0x23, 0xf8, 0xe2,
    0xdc, 0x5b, 0xf4, 0x9f, 0xe6, 0xcd, 0xfc, 0x21, 0xc2, 0x3c,
    0xd1, 0x0a, 0xde, 0xe2, 0x13, 0xb8, 0xf3, 0x1f, 0x3e, 0x98,
    0xe3, 0xce, 0xa3, 0xc0, 0xe8, 0x29, 0xc9, 0x24, 0x43, 0x4a,
    0xfa, 0x39, 0xfe, 0x20, 0xda, 0xa6, 0xb4, 0xd4, 0xd6, 0xf0,
    0x0b, 0x22, 0xb1, 0x14, 0x07, 0xd5, 0x01, 0x23, 0x18, 0xff,
    0x0c, 0xc5, 0xaf, 0xe1, 0x99, 0xb8, 0x0d, 0x27, 0xa5, 0x0e,
    0x35, 0xbe, 0xfb, 0x1e, 0x04, 0xf7, 0x0c, 0x8e, 0xc0, 0xc1,
    0xe2, 0xc3, 0x04, 0x3f, 0xa1, 0x10, 0x30, 0xb8, 0xee, 0xcc,
    0x1b, 0x00, 0x1f, 0xde, 0xd3, 0xf4, 0xa1, 0xd5, 0xfc, 0x55,
    0x1d, 0x02, 0x25, 0x59, 0xec, 0xd6, 0xfc, 0xfe, 0x2b, 0xf0,
    0xdb, 0xd0, 0xb5, 0xb9, 0xfc, 0xec, 0x09, 0xe1, 0x07, 0x4f,
    0xc8, 0x24, 0xf1, 0x05, 0x29, 0xe3, 0x11, 0x12, 0x07, 0xba,
    0x42, 0x11, 0x05, 0x04, 0x15, 0x06, 0x03, 0xea, 0xf4, 0x01,
    0xe7, 0x06, 0x19, 0x01, 0xb8, 0xac, 0xee, 0x32, 0xeb, 0x23,
    0xd6, 0x02, 0x3e, 0x20, 0xfc, 0x07, 0x4b, 0xaf, 0xc6, 0x34,
    0xd5, 0xf4, 0x2a, 0x29, 0xfb, 0xf6, 0xcb, 0x16, 0x7f, 0x06,
    0x09, 0x02, 0xf5, 0xb9, 0x1a, 0xfd, 0xf9, 0xe2, 0xf2, 0xfc,
    0x35, 0xf7, 0xd6, 0x2d, 0x6f, 0xec, 0xf6, 0x14, 0x62, 0x9f,
    0xea, 0xda, 0xd2, 0xcb, 0xf2, 0xf8, 0x22, 0xfe, 0xdb, 0xf6,
    0xfd, 0x1e, 0x1a, 0x09, 0x43, 0xf4, 0xcc, 0x19, 0xed, 0xc1,
    0x2d, 0xcd, 0xc2, 0x01, 0x2a, 0xef, 0xef, 0x40, 0xfd, 0xf8,
    0x32, 0xf1, 0xee, 0xf8, 0xf0, 0xc5, 0x32, 0xe5, 0x3d, 0x0b,
    0xdd, 0xef, 0x04, 0x35, 0x16, 0x04, 0x22, 0xa7, 0xc4, 0xeb,
    0xb3, 0xc9, 0x42, 0xc8, 0x46, 0xc4, 0x31, 0x7f, 0x4e, 0x73,
    0xdd, 0xf2, 0xc3, 0xba, 0x0a, 0x06, 0x09, 0x03, 0x11, 0xd1,
    0x59, 0xc4, 0xe6, 0xe6, 0x0d, 0xe7, 0xf1, 0x01, 0xe5, 0xb6,
    0x0a, 0x35, 0x37, 0xbd, 0x04, 0xf4, 0x62, 0xba, 0x23, 0x3e,
    0x3d, 0x74, 0xf5, 0xf4, 0xcd, 0xc6, 0x57, 0x09, 0x25, 0xb7,
    0x14, 0xd0, 0x66, 0xff, 0x0b, 0x17, 0xc8, 0x30, 0x07, 0x05,
    0xc9, 0xd4, 0xe9, 0x16, 0xf3, 0x01, 0xe3, 0xf9, 0x43, 0x02,
    0x27, 0xd8, 0x6b, 0x06, 0x29, 0x0c, 0xfd, 0xc3, 0x1e, 0xe6,
    0xf5, 0xd8, 0x33, 0xee, 0x5b, 0x0c, 0x25, 0xf0, 0xaa, 0x17,
    0x22, 0x0d, 0x02, 0x18, 0xde, 0x2a, 0xd6, 0x10, 0x11, 0xd9,
    0x6c, 0xde, 0x27, 0x00, 0xe0, 0xf2, 0xfc, 0xc8, 0x0d, 0x08,
    0xfc, 0x45, 0xf4, 0xf3, 0x29, 0x2e, 0x5c, 0xe2, 0xf9, 0x03,
    0x0d, 0x0f, 0xfb, 0xc6, 0x1c, 0x0e, 0x01, 0x04, 0xee, 0x0a,
    0x14, 0xed, 0x7f, 0xde, 0x27, 0xfe, 0xe5, 0x29, 0xdf, 0xd3,
    0x37, 0x07, 0xfb, 0x1c, 0x05, 0xd6, 0x0c, 0x30, 0xfe, 0xeb,
    0x1f, 0xf7, 0xfc, 0xe6, 0xdb, 0xf9, 0x1c, 0x01, 0xf9, 0xf9,
    0xfa, 0x06, 0x08, 0x02, 0xe0, 0xe6, 0xe3, 0xe8, 0xfa, 0x1a,
    0xf3, 0xee, 0x08, 0xec, 0xf3, 0xfe, 0x01, 0x27, 0x15, 0xef,
    0xdd, 0xe8, 0x0e, 0xe4, 0xfd, 0xf6, 0x06, 0xeb, 0xf8, 0xff,
    0xec, 0x1c, 0xf1, 0xf9, 0xfb, 0xf8, 0x04, 0xde, 0xf3, 0xcc,
    0xf5, 0xff, 0xff, 0xe6, 0xda, 0xf2, 0x09, 0x02, 0x28, 0x27,
    0xe4, 0x22, 0x0c, 0xdd, 0x07, 0xdb, 0xfb, 0xe1, 0xe0, 0xdf,
    0xe7, 0xf0, 0xfa, 0x0b, 0xea, 0xfd, 0x04, 0xe9, 0xde, 0xd1,
    0x19, 0xd7, 0x02, 0xdd, 0xed, 0xd6, 0xd9, 0xe3, 0x25, 0xfd,
    0x21, 0x21, 0xe6, 0xd8, 0x75, 0xee, 0xf2, 0xfa, 0x05, 0x2d,
    0xb8, 0xde, 0x31, 0xf5, 0x04, 0x1e, 0x11, 0x2c, 0x22, 0x24,
    0xe8, 0xf3, 0x05, 0xfb, 0xd6, 0x1e, 0xc6, 0xdf, 0xe9, 0xf9,
    0x11, 0x01, 0x0e, 0x09, 0x18, 0x1e, 0x7f, 0xf7, 0x28, 0xff,
    0xed, 0xee, 0xda, 0xe7, 0x2f, 0xe5, 0xfb, 0x54, 0xfa, 0xdf,
    0xe5, 0x17, 0xeb, 0xe7, 0x10, 0xcb, 0x04, 0xf5, 0xfe, 0xec,
    0x18, 0xe6, 0x03, 0x29, 0x0e, 0x30, 0xf8, 0xee, 0xe3, 0xe4,
    0x1c, 0xd0, 0xde, 0x23, 0xec, 0xec, 0x0d, 0x09, 0x06, 0x1a,
    0x1d, 0xf7, 0xda, 0xd0, 0x16, 0xe6, 0xec, 0xd1, 0xf6, 0x07,
    0xc7, 0xed, 0x40, 0xf6, 0xfb, 0x2c, 0xec, 0x27, 0xe0, 0xec,
    0x32, 0x07, 0xde, 0xd5, 0x02, 0x03, 0x01, 0x03, 0x3c, 0xf4,
    0x0e, 0x00, 0xfa, 0x49, 0x0f, 0xec, 0xf6, 0x0f, 0xd7, 0xfc,
    0xff, 0x01, 0xf1, 0x0d, 0xff, 0x1e, 0xf3, 0x45, 0x0e, 0xfc,
    0xdd, 0xe3, 0xd7, 0x0a, 0xe4, 0xcf, 0x17, 0xdc, 0xea, 0x11,
    0xfd, 0xde, 0xf3, 0x17, 0xf8, 0xf0, 0xd8, 0x11, 0xfb, 0xef,
    0xf5, 0xec, 0x05, 0xfc, 0x39, 0xf9, 0xf8, 0xc7, 0xd5, 0xf8,
    0xe1, 0x11, 0xfc, 0xdd, 0x0c, 0xec, 0x11, 0xea, 0x02, 0x15,
    0x19, 0xfa, 0xf4, 0xb8, 0xdc, 0x2d, 0xd0, 0xee, 0x24, 0xe6,
    0xdc, 0xed, 0x2a, 0xf0, 0x0c, 0x2e, 0x1f, 0xf8, 0xfb, 0xc9,
    0xe3, 0x01, 0xcb, 0x19, 0xf8, 0x01, 0x37, 0xbc, 0x14, 0x7f,
    0xd2, 0xee, 0xff, 0xba, 0xd9, 0xd0, 0x0b, 0x09, 0xf6, 0x12,
    0x21, 0xfc, 0x14, 0xb5, 0x07, 0xef, 0xe8, 0x28, 0xe3, 0xb7,
    0xe5, 0xbf, 0x19, 0x01, 0xfe, 0xef, 0x2c, 0x15, 0xe5, 0xb5,
    0x18, 0x7b, 0xea, 0xe4, 0xea, 0xb1, 0xed, 0xd0, 0x15, 0x32,
    0x18, 0xeb, 0x0e, 0xf6, 0x1d, 0xd6, 0x16, 0xe2, 0xda, 0x15,
    0xc2, 0xd9, 0xd3, 0xf5, 0x16, 0x0a, 0x16, 0xed, 0xec, 0x12,
    0xd8, 0xd1, 0xc7, 0xfb, 0xcb, 0x16, 0xdb, 0xe3, 0xd2, 0xf2,
    0xf5, 0xe6, 0x0c, 0xf4, 0x01, 0x03, 0xe7, 0xd2, 0xec, 0xec,
    0xbe, 0xcd, 0xe6, 0xce, 0xf0, 0x10, 0x0e, 0xe4, 0x08, 0xe8,
    0xf8, 0xe6, 0x15, 0x05, 0x00, 0x00, 0x3a, 0x04, 0x00, 0x00,
    0xbb, 0xfa, 0xff, 0xff, 0xb3, 0x05, 0x00, 0x00, 0xdb, 0xea,
    0xff, 0xff, 0xd3, 0x0d, 0x00, 0x00, 0xe5, 0x13, 0x00, 0x00,
    0x0a, 0xea, 0xff, 0xff, 0xc3, 0x0a, 0x00, 0x00, 0x3c, 0xf7,
    0xff, 0xff, 0x8c, 0xf6, 0xff, 0xff, 0x52, 0xfa, 0xff, 0xff,
    0xf0, 0xfa, 0xff, 0xff, 0xb0, 0x05, 0x00, 0x00, 0x5d, 0xff,
    0xff, 0xff, 0x5a, 0x06, 0x00, 0x00, 0xcc, 0xc7, 0x50, 0x07,
    0xa9, 0x3e, 0x0d, 0xcf, 0xd4, 0x0a, 0x0b, 0x0e, 0x2f, 0xee,
    0xe4, 0x35, 0xc8, 0xda, 0x31, 0xec, 0xbe, 0x2c, 0xf8, 0xc7,
    0xdc, 0x0f, 0x15, 0x02, 0x1d, 0xee, 0xf0, 0x14, 0xd5, 0xdf,
    0x1d, 0x03, 0xba, 0x29, 0x09, 0xc2, 0xde, 0x0a, 0x14, 0x0c,
    0x08, 0xf4, 0xf7, 0x29, 0xd6, 0xd4, 0x1e, 0x0a, 0xcc, 0x38,
    0x00, 0xd3, 0xd5, 0x08, 0x07, 0x08, 0x1e, 0xf4, 0xe6, 0x18,
    0xca, 0xde, 0x38, 0x0a, 0xc6, 0x42, 0xf8, 0xca, 0xdb, 0x1b,
    0x10, 0x0f, 0x1d, 0xea, 0xe1, 0x1e, 0xb5, 0xc2, 0x32, 0x04,
    0xb3, 0x44, 0x14, 0xd1, 0xe1, 0xf5, 0x16, 0x13, 0x0f, 0xf2,
    0xe3, 0x28, 0x2b, 0xe1, 0x33, 0x2e, 0xfb, 0x16, 0x41, 0xc8,
    0x1e, 0xf7, 0xd5, 0xe2, 0x12, 0x19, 0xf0, 0x29, 0xf0, 0xfe,
    0x1f, 0x29, 0x05, 0x1b, 0x37, 0xce, 0x1b, 0xe5, 0xef, 0xea,
    0x24, 0x11, 0x16, 0x17, 0x02, 0xfd, 0x05, 0x22, 0x04, 0x15,
    0x46, 0xc3, 0x2a, 0x07, 0xde, 0xe5, 0x01, 0x1a, 0x01, 0x1a,
    0x19, 0xf1, 0xfb, 0x25, 0xec, 0x01, 0x47, 0xaf, 0x26, 0xe9,
    0xe7, 0xe1, 0xf0, 0x0c, 0xec, 0x12, 0x03, 0x05, 0x08, 0x23,
    0x11, 0x19, 0x2b, 0xc9, 0x30, 0x06, 0xde, 0xce, 0xf9, 0x11,
    0xfc, 0x1b, 0x02, 0xe7, 0x06, 0x3d, 0x0b, 0x1e, 0x4b, 0xaa,
    0x3c, 0xcf, 0xdf, 0xd2, 0x11, 0x2d, 0xf0, 0x10, 0xd1, 0x1f,
    0x1f, 0xfd, 0x0c, 0xe9, 0x51, 0xec, 0x07, 0xec, 0xc1, 0xfa,
    0xeb, 0xf1, 0xb3, 0xd3, 0xdd, 0x1e, 0x04, 0xfd, 0x06, 0xf0,
    0x38, 0xf0, 0x02, 0x10, 0xc3, 0xea, 0x01, 0xdc, 0xc5, 0xd9,
    0xf1, 0x1b, 0x10, 0xf4, 0x1c, 0xe7, 0x3c, 0xf8, 0x04, 0xeb,
    0xfd, 0xcc, 0xc7, 0xe3, 0xb5, 0xd9, 0xe5, 0x16, 0x1c, 0xf5,
    0x06, 0xd7, 0x4d, 0xe6, 0x10, 0x0e, 0xd8, 0xfc, 0xed, 0xe1,
    0xc9, 0xe7, 0xd8, 0x11, 0x2f, 0x09, 0xfd, 0xed, 0x46, 0xd9,
    0xfe, 0xd5, 0xc6, 0xd7, 0xe7, 0xd7, 0xd9, 0xe1, 0xea, 0x2c,
    0x03, 0xfc, 0x04, 0xe4, 0x43, 0xc7, 0x04, 0xfd, 0xd7, 0xdc,
    0xe4, 0xec, 0xcc, 0xdd, 0xec, 0x48, 0x0b, 0xbf, 0x08, 0xfa,
    0x0e, 0xe1, 0xc1, 0xda, 0xe1, 0xf9, 0x04, 0xbc, 0xec, 0xbf,
    0xfe, 0x54, 0x42, 0xd4, 0x1f, 0xdb, 0xfe, 0xd5, 0xe3, 0x0c,
    0x05, 0x18, 0x08, 0xc9, 0xd0, 0xe0, 0xf4, 0x37, 0x1b, 0xcf,
    0x2e, 0x06, 0xff, 0xe0, 0xcb, 0xfc, 0x01, 0x01, 0x0f, 0xba,
    0xc5, 0xd4, 0xbc, 0x4e, 0x20, 0xca, 0x1d, 0xee, 0xfb, 0xd7,
    0xce, 0xd7, 0x04, 0x12, 0xee, 0xc0, 0xd9, 0xe8, 0xcf, 0x51,
    0xf7, 0xd7, 0x16, 0xf9, 0x01, 0xe7, 0xd5, 0x20, 0xf1, 0xf0,
    0x18, 0xd3, 0xf2, 0xd5, 0xd1, 0x51, 0xf6, 0xc5, 0x10, 0xe0,
    0xfc, 0xf1, 0xe9, 0x0c, 0xde, 0xee, 0x16, 0xd0, 0xc8, 0xc8,
    0xf0, 0x1c, 0x04, 0xf2, 0xde, 0x0f, 0xfb, 0xcc, 0xdd, 0xd0,
    0x11, 0xf1, 0xf3, 0xed, 0x06, 0x4d, 0x00, 0xfd, 0xfe, 0x00,
    0x0d, 0x09, 0xfe, 0xbe, 0xe0, 0xc8, 0x09, 0x04, 0x37, 0xf5,
    0x04, 0x49, 0x06, 0x02, 0x20, 0x10, 0xee, 0x0b, 0xfb, 0xd3,
    0xf1, 0xea, 0xf8, 0x0a, 0x11, 0xe8, 0x08, 0x33, 0xf6, 0x11,
    0x42, 0x0a, 0x08, 0x08, 0x03, 0xbc, 0xd8, 0xc2, 0x19, 0xe3,
    0x04, 0xf0, 0x01, 0x3b, 0xce, 0x08, 0xf6, 0xf6, 0xfa, 0x0b,
    0x01, 0xce, 0xd4, 0xd7, 0x01, 0xe9, 0xf5, 0xf3, 0x19, 0x2f,
    0xe2, 0x0c, 0xe9, 0xf7, 0xe3, 0x15, 0xff, 0xe7, 0xd1, 0xe0,
    0xff, 0x12, 0x07, 0xef, 0xe8, 0x46, 0xef, 0xf9, 0x0a, 0xf5,
    0xe7, 0x03, 0x0a, 0xbc, 0xf8, 0xbf, 0xfa, 0xbc, 0xcd, 0xfa,
    0x05, 0xfd, 0xe2, 0x02, 0xe5, 0x00, 0xe3, 0xf4, 0x08, 0xb3,
    0x01, 0xd6, 0xf5, 0xd3, 0xc4, 0xf2, 0xe8, 0x00, 0xf2, 0xf7,
    0x07, 0xf8, 0xf5, 0xf9, 0x0e, 0xa8, 0xef, 0xde, 0xe1, 0xc6,
    0xf4, 0xe7, 0x18, 0xe8, 0x0f, 0xf1, 0xff, 0xfa, 0xf7, 0xf9,
    0xfd, 0xc8, 0xf0, 0xc6, 0xed, 0xd0, 0xc6, 0xe1, 0xe6, 0xf1,
    0x13, 0xf5, 0x0b, 0x03, 0xf6, 0xfc, 0x00, 0xa4, 0xfc, 0x01,
    0xf4, 0xdb, 0xc8, 0xfd, 0xf1, 0xf8, 0xec, 0xfd, 0x0a, 0xed,
    0xdc, 0xf0, 0x05, 0xad, 0xf6, 0xdc, 0xf8, 0xc9, 0xbf, 0xec,
    0xf3, 0xf1, 0xcc, 0xbf, 0x50, 0xfc, 0xa7, 0x3f, 0x11, 0xbe,
    0xce, 0x26, 0x08, 0x19, 0x1a, 0xff, 0xdc, 0x1f, 0xb9, 0xc8,
    0x28, 0x04, 0xab, 0x47, 0x1c, 0xcf, 0xcb, 0x25, 0x10, 0x13,
    0x16, 0xeb, 0xda, 0x1a, 0xd3, 0xca, 0x31, 0xf3, 0xae, 0x42,
    0x15, 0xba, 0xe0, 0x2a, 0x0f, 0x09, 0x22, 0xf8, 0xcc, 0x18,
    0xc5, 0xd3, 0x23, 0xfd, 0xb5, 0x35, 0xfd, 0xca, 0xea, 0x01,
    0x11, 0x0e, 0x1e, 0xf8, 0xe5, 0x28, 0xd6, 0xd3, 0x23, 0xfa,
    0xc5, 0x2a, 0xfc, 0xc8, 0xe8, 0x00, 0x14, 0x11, 0x20, 0xfd,
    0xdf, 0x1f, 0xce, 0xd9, 0x34, 0xfc, 0xb7, 0x58, 0xfd, 0xc9,
    0xe0, 0x12, 0x18, 0x13, 0x1d, 0xf1, 0xe3, 0x2f, 0x06, 0xf9,
    0x07, 0x3f, 0x03, 0x17, 0x35, 0xce, 0x40, 0xdf, 0xd6, 0xf0,
    0x21, 0x2c, 0xf7, 0x17, 0x10, 0xfd, 0x37, 0x2a, 0x0d, 0x21,
    0x2a, 0xc6, 0x27, 0xff, 0xe0, 0xe0, 0x05, 0x0a, 0x04, 0x22,
    0xf9, 0xf9, 0xfa, 0x30, 0x0f, 0x08, 0x38, 0xb1, 0x1f, 0xe2,
    0xe7, 0xe3, 0x08, 0x17, 0xfe, 0x19, 0xf5, 0xfe, 0x2c, 0x25,
    0x0e, 0x0c, 0x2a, 0xc1, 0x27, 0x00, 0xe9, 0xf0, 0x12, 0x1c,
    0x0b, 0x0e, 0x18, 0x03, 0xfc, 0x33, 0x0c, 0x0d, 0x3c, 0xcc,
    0x19, 0xd6, 0xed, 0xe9, 0x19, 0x28, 0xff, 0x0a, 0xf3, 0xe7,
    0x12, 0x30, 0x02, 0x20, 0x45, 0xaf, 0x44, 0xf3, 0xc5, 0xd3,
    0xf1, 0x30, 0x0e, 0x22, 0xcc, 0x1f, 0x00, 0xf8, 0x1c, 0xdf,
    0x56, 0x0e, 0x18, 0x07, 0xe0, 0xcf, 0xe8, 0xd5, 0xb9, 0xcc,
    0xea, 0x0e, 0x31, 0xee, 0x18, 0xd7, 0x46, 0x03, 0xef, 0xed,
    0xe3, 0xdd, 0xd7, 0xdc, 0xc7, 0xb8, 0xc6, 0x20, 0xec, 0xf4,
    0x1d, 0xdc, 0x4d, 0xcb, 0x01, 0x09, 0xcc, 0xf6, 0x0c, 0xda,
    0xdb, 0xcf, 0xd5, 0x28, 0xed, 0xf6, 0x19, 0xf4, 0x57, 0xd2,
    0x00, 0xe0, 0xe1, 0xbc, 0xf2, 0xdf, 0xd1, 0xcc, 0xe8, 0x17,
    0x24, 0x04, 0x2d, 0xfd, 0x4f, 0xea, 0xf8, 0xde, 0xe8, 0xdb,
    0xd3, 0xea, 0xca, 0xf2, 0xd6, 0x21, 0xeb, 0xf0, 0x1e, 0xf7,
    0x44, 0xe4, 0x08, 0xff, 0xbf, 0xba, 0xdf, 0xce, 0xc2, 0xc7,
    0xdb, 0x57, 0x28, 0xd0, 0x10, 0xdd, 0xfd, 0x11, 0xc0, 0x0f,
    0xda, 0x00, 0xf5, 0xc1, 0xcc, 0xe6, 0xeb, 0x50, 0x16, 0xc5,
    0x3b, 0xdc, 0x0b, 0xe6, 0xde, 0x10, 0xed, 0xf0, 0xed, 0xc7,
    0xc3, 0xcc, 0xdc, 0x50, 0xf3, 0xbf, 0x21, 0xd9, 0x05, 0xd9,
    0xe7, 0x22, 0x15, 0xec, 0x11, 0xd6, 0xe0, 0xe5, 0xf9, 0x44,
    0x1a, 0xc3, 0x2d, 0xd7, 0xfe, 0x14, 0xd8, 0xfc, 0xdb, 0x04,
    0x1c, 0xcb, 0xf4, 0xd3, 0xc9, 0x3c, 0x3a, 0xc3, 0x1e, 0xf3,
    0x04, 0x02, 0xf2, 0xe6, 0x13, 0xed, 0xfa, 0xd8, 0xd0, 0xc3,
    0xc8, 0x55, 0x39, 0xc8, 0x25, 0xda, 0xff, 0xca, 0xcf, 0xe1,
    0x17, 0xf6, 0xe6, 0xb5, 0xe2, 0xe0, 0xc1, 0xfd, 0x1a, 0x03,
    0x0d, 0x13, 0x0a, 0xc0, 0xd3, 0xcb, 0x24, 0x07, 0x00, 0xf0,
    0xed, 0x36, 0x06, 0x0d, 0xeb, 0xfb, 0xeb, 0x2a, 0xfc, 0xee,
    0xe6, 0xdc, 0xfe, 0xfb, 0xe1, 0xe8, 0x04, 0x37, 0xd3, 0x13,
    0xf2, 0xfe, 0xfb, 0x05, 0x01, 0xd8, 0xe8, 0xc4, 0x29, 0xe5,
    0x17, 0xf7, 0xf8, 0x4d, 0x06, 0x06, 0xe7, 0xf7, 0xe5, 0x22,
    0x01, 0xdd, 0xe8, 0x06, 0x03, 0x17, 0xe9, 0xe8, 0x00, 0x44,
    0xef, 0x27, 0x12, 0xfb, 0xf6, 0x14, 0xf9, 0xcd, 0xec, 0xd0,
    0xfd, 0xea, 0xfb, 0xdd, 0xf0, 0x43, 0xeb, 0x14, 0x21, 0xfe,
    0xea, 0x0c, 0x00, 0xa5, 0xf2, 0xf8, 0xfa, 0x00, 0x09, 0xe0,
    0x21, 0x33, 0x08, 0x07, 0xda, 0xef, 0xc6, 0xfc, 0x11, 0xca,
    0xee, 0xde, 0xdb, 0xd3, 0xbe, 0xe9, 0x09, 0xfb, 0xf5, 0xe5,
    0xf7, 0xf6, 0x1f, 0xf3, 0x12, 0xbd, 0xf0, 0xe1, 0x01, 0xdb,
    0xb9, 0xf9, 0x01, 0x06, 0xe9, 0x06, 0x01, 0xef, 0xcc, 0xe5,
    0x04, 0xd0, 0xf6, 0xc4, 0x1c, 0xee, 0xe5, 0x08, 0xef, 0xf9,
    0xde, 0x01, 0x0f, 0xfb, 0xf5, 0xf2, 0x03, 0xc6, 0xea, 0xf0,
    0xea, 0xd7, 0xdf, 0xfb, 0x1d, 0xfe, 0xed, 0xec, 0xfa, 0xe9,
    0xcf, 0xfc, 0x01, 0xdd, 0xef, 0xd7, 0xf2, 0xdf, 0xf6, 0xff,
    0x0a, 0xfe, 0x09, 0xed, 0xfc, 0xfe, 0x05, 0xff, 0x03, 0xc8,
    0xe9, 0xfb, 0xef, 0xba, 0xf2, 0xeb, 0xfb, 0xfa, 0x31, 0x1d,
    0xdf, 0xf4, 0x17, 0xb7, 0x1b, 0x13, 0x1a, 0x02, 0xce, 0xdc,
    0xc7, 0x21, 0x13, 0xb5, 0x33, 0x0f, 0xbc, 0xec, 0x16, 0xbc,
    0x09, 0x1e, 0x12, 0x0d, 0xd7, 0xe2, 0xc5, 0x19, 0x07, 0x99,
    0x2d, 0x12, 0xc8, 0xef, 0x18, 0xbe, 0xef, 0x23, 0x08, 0x06,
    0xdb, 0xd5, 0xdc, 0x17, 0x14, 0xa9, 0x28, 0x0f, 0xd3, 0x08,
    0x14, 0xca, 0x00, 0x1c, 0x02, 0x09, 0xd5, 0xde, 0xd7, 0x16,
    0x0d, 0xad, 0x21, 0x1c, 0xd7, 0xf2, 0x10, 0xb2, 0x22, 0x21,
    0x08, 0x21, 0xd8, 0xdc, 0xd5, 0x10, 0x10, 0xa4, 0x32, 0x13,
    0xea, 0xfb, 0x1f, 0xca, 0xe7, 0x17, 0x03, 0x0d, 0xd8, 0xcc,
    0xc2, 0x30, 0x14, 0x9f, 0xeb, 0xce, 0xde, 0xb0, 0x27, 0x1a,
    0xce, 0xe5, 0xfe, 0xdf, 0x09, 0xfe, 0xd8, 0x0b, 0x00, 0xed,
    0xe4, 0xe3, 0xdb, 0xd1, 0x06, 0xe5, 0xc5, 0x04, 0x02, 0xdd,
    0x0b, 0xf3, 0xf3, 0xff, 0x0d, 0xd8, 0x14, 0x01, 0xfb, 0xba,
    0x0a, 0x19, 0xc8, 0xfd, 0xc5, 0xfc, 0x0b, 0xfd, 0xf9, 0x0b,
    0x08, 0xe7, 0xd8, 0xd6, 0xea, 0xd5, 0x09, 0xf3, 0xc4, 0xf2,
    0xea, 0xed, 0x11, 0x0b, 0xec, 0x06, 0x04, 0xfa, 0x08, 0x02,
    0x16, 0xce, 0xfa, 0x10, 0xea, 0xef, 0xfb, 0xf1, 0xf8, 0x0a,
    0x00, 0x08, 0x0f, 0xea, 0xef, 0xea, 0x06, 0xe1, 0x0c, 0xf3,
    0xf0, 0x03, 0xf7, 0x0e, 0x14, 0x00, 0xe1, 0xfb, 0xf8, 0xe2,
    0xf6, 0x12, 0x0b, 0xfc, 0x01, 0x38, 0xa5, 0x0b, 0x09, 0xf2,
    0x27, 0x08, 0xfe, 0x14, 0x36, 0x1d, 0xf8, 0xeb, 0xd3, 0x1b,
    0xf0, 0x38, 0xe6, 0x02, 0xda, 0x0d, 0x1a, 0x0c, 0x0e, 0x0e,
    0x35, 0xfb, 0x20, 0xfc, 0x1f, 0x0c, 0xda, 0x29, 0xb3, 0xea,
    0xee, 0x04, 0x01, 0xfc, 0x02, 0xf0, 0x38, 0x22, 0x28, 0xf6,
    0xe9, 0x18, 0xe3, 0x18, 0xb7, 0x0a, 0xf3, 0xf4, 0x14, 0x08,
    0xf3, 0x1b, 0x23, 0x01, 0x21, 0x14, 0xe2, 0xf3, 0xf0, 0x14,
    0xb1, 0x10, 0xe1, 0x1c, 0x22, 0xfb, 0xfd, 0x10, 0x0a, 0x36,
    0x0e, 0xf2, 0x01, 0xf6, 0xda, 0xfd, 0xb0, 0xe8, 0x0f, 0xfe,
    0x19, 0xed, 0xfc, 0x20, 0x2a, 0x04, 0x03, 0xec, 0x03, 0x09,
    0xe6, 0x17, 0xf9, 0xea, 0xf7, 0x02, 0xfd, 0xf7, 0xd2, 0x25,
    0x0d, 0x12, 0x0d, 0xfe, 0xcd, 0xf4, 0xf4, 0x10, 0xee, 0xd0,
    0xf8, 0xfe, 0x21, 0xcf, 0xdb, 0x1c, 0x22, 0x13, 0x02, 0xd8,
    0xe5, 0x1f, 0xe6, 0x20, 0xf1, 0xf3, 0xf8, 0x26, 0x1b, 0xd9,
    0xe1, 0x08, 0x17, 0x06, 0x23, 0xd1, 0xef, 0xff, 0xea, 0x2e,
    0xdd, 0xd9, 0x0e, 0x08, 0x02, 0xf5, 0xd2, 0x33, 0x25, 0x24,
    0xf4, 0xde, 0x05, 0xea, 0xe0, 0x21, 0xe3, 0xdc, 0x1a, 0xd7,
    0x26, 0x01, 0xf8, 0x2d, 0x08, 0x36, 0x0f, 0xe6, 0xd3, 0x02,
    0x13, 0x2c, 0xec, 0xf0, 0x04, 0x01, 0x18, 0xe6, 0xe2, 0x33,
    0x25, 0x31, 0x03, 0xb2, 0xce, 0x0a, 0x24, 0x0e, 0x0c, 0xfc,
    0x24, 0x25, 0x21, 0xec, 0xcb, 0x35, 0x0f, 0x1a, 0x25, 0xb6,
    0xcc, 0xf9, 0x11, 0x0f, 0xfe, 0xde, 0x2d, 0x06, 0x34, 0xe8,
    0xd8, 0x16, 0xeb, 0xe3, 0xf9, 0xba, 0xdc, 0xee, 0x2b, 0xf2,
    0x05, 0x18, 0x2b, 0x15, 0x09, 0x15, 0xdf, 0x04, 0x16, 0x19,
    0x0c, 0xc2, 0xcb, 0x15, 0x03, 0xe4, 0x1c, 0x05, 0xff, 0xef,
    0x12, 0xdb, 0xc5, 0x13, 0xf7, 0xfc, 0x02, 0xdd, 0xd3, 0xf6,
    0x15, 0x0a, 0x0b, 0x08, 0x15, 0x24, 0x06, 0xed, 0xf4, 0xfe,
    0xf4, 0x0f, 0x10, 0xb8, 0xde, 0x0b, 0x07, 0x1f, 0x0c, 0x21,
    0x01, 0x2b, 0x12, 0x0b, 0xd2, 0x30, 0x1f, 0xe3, 0x2a, 0x07,
    0xbe, 0xff, 0x25, 0x62, 0x0f, 0xe5, 0x1c, 0x05, 0xfa, 0xac,
    0xc7, 0x4b, 0x0c, 0x13, 0x2a, 0x46, 0xed, 0x04, 0xf4, 0x48,
    0x0d, 0xff, 0x29, 0x04, 0xda, 0xb8, 0xe7, 0x17, 0xf5, 0x41,
    0x19, 0x1e, 0xc5, 0x10, 0xfc, 0x58, 0x13, 0xdb, 0xf7, 0xfb,
    0xfe, 0xe7, 0xc0, 0x22, 0xfa, 0x04, 0x02, 0x31, 0xc7, 0xf3,
    0x36, 0x55, 0x07, 0xe3, 0xf7, 0xe4, 0x06, 0xd0, 0xdd, 0x51,
    0xfd, 0x41, 0x22, 0x3e, 0x04, 0xf0, 0xe7, 0x5b, 0xff, 0xfe,
    0x0f, 0x09, 0x04, 0xc0, 0xd9, 0x51, 0xed, 0x1b, 0x0c, 0x25,
    0xe2, 0x13, 0x21, 0x4f, 0x03, 0x0e, 0x11, 0x16, 0xe1, 0xbb,
    0xd5, 0x44, 0xf6, 0x55, 0xea, 0xfc, 0xd7, 0x90, 0xea, 0xa5,
    0x1b, 0x2f, 0xe3, 0xbc, 0x2d, 0x1d, 0xd6, 0xbf, 0xda, 0x0d,
    0xee, 0x15, 0xef, 0xbd, 0xf8, 0xe6, 0xd6, 0x1f, 0xd1, 0xdc,
    0x2f, 0x1e, 0xe4, 0xd4, 0xe0, 0x00, 0xe0, 0x1c, 0xd7, 0xac,
    0xcc, 0xc2, 0x26, 0x27, 0x02, 0xce, 0x32, 0x0f, 0xfa, 0xd2,
    0xc7, 0x0d, 0xcb, 0x2e, 0xc8, 0x9d, 0xeb, 0xd4, 0xd3, 0x20,
    0xcb, 0xe3, 0x2f, 0x16, 0xf1, 0xe7, 0xe2, 0x11, 0xfd, 0x12,
    0xe4, 0xb4, 0xe6, 0xca, 0xd3, 0x1d, 0xf0, 0xce, 0x2d, 0x1a,
    0xf4, 0xc2, 0xd5, 0x04, 0xd5, 0x02, 0xc7, 0x89, 0xea, 0xdd,
    0x1b, 0x2c, 0xc9, 0xbf, 0x35, 0x18, 0xe0, 0xbe, 0xf0, 0x0d,
    0xec, 0x0e, 0x04, 0xc7, 0xca, 0xba, 0x0b, 0x53, 0x0b, 0xfe,
    0x27, 0x07, 0xea, 0xf4, 0xe7, 0x1e, 0x14, 0x02, 0xf5, 0xc5,
    0xe9, 0xe0, 0xcf, 0x47, 0xf2, 0xf7, 0x1f, 0x0c, 0xf4, 0xe0,
    0xd8, 0x04, 0x17, 0x22, 0x05, 0xf3, 0xe2, 0xe1, 0x14, 0x2f,
    0x07, 0x11, 0x1b, 0x14, 0xec, 0xd9, 0xd6, 0xe4, 0x2e, 0x10,
    0xe3, 0xf8, 0xde, 0xbe, 0xfb, 0x29, 0x01, 0xe8, 0x04, 0x05,
    0x03, 0xe5, 0xc9, 0x13, 0xec, 0x11, 0xeb, 0xed, 0xe3, 0xd2,
    0xc9, 0x29, 0xea, 0xe8, 0x0e, 0x14, 0x03, 0xbe, 0xe8, 0xe9,
    0x02, 0x0e, 0x04, 0xc5, 0xda, 0xba, 0x0f, 0x44, 0x05, 0xf4,
    0x1c, 0x10, 0xfa, 0xc7, 0xf3, 0xfd, 0xdc, 0xfb, 0x03, 0x21,
    0xfa, 0xf0, 0xcc, 0x09, 0xe6, 0xfe, 0x1f, 0x30, 0x0d, 0xf7,
    0x10, 0x00, 0xed, 0x0b, 0xef, 0xef, 0x05, 0x1d, 0xf7, 0x20,
    0x24, 0xf0, 0x24, 0x0c, 0x05, 0xf8, 0xfa, 0xfc, 0x15, 0x03,
    0xe4, 0x0d, 0xd3, 0xd5, 0xf1, 0x34, 0x0d, 0xea, 0x31, 0x17,
    0x08, 0x1a, 0xed, 0xe0, 0x12, 0x04, 0xe5, 0xf9, 0xe6, 0xfd,
    0xca, 0x18, 0x15, 0xde, 0x26, 0xfd, 0x11, 0x08, 0x0e, 0xf1,
    0xe5, 0x1e, 0xf0, 0x2a, 0xee, 0xd6, 0x10, 0x2e, 0x13, 0xf6,
    0x0b, 0x10, 0x0b, 0xf3, 0x0a, 0x19, 0x03, 0xff, 0xe2, 0xee,
    0x0f, 0xfe, 0xd9, 0x22, 0xd5, 0x10, 0x21, 0x1a, 0x10, 0x09,
    0xfc, 0x1f, 0xd4, 0x05, 0x04, 0x1c, 0xbe, 0xf2, 0xcb, 0x2f,
    0xd3, 0xe5, 0x10, 0x3f, 0x0d, 0x0f, 0x0c, 0xff, 0xee, 0xec,
    0xfa, 0xcd, 0xeb, 0xfc, 0xd5, 0x23, 0xda, 0xf0, 0x25, 0x07,
    0x0f, 0xd1, 0xe9, 0x22, 0x0b, 0xd1, 0xfb, 0xf5, 0xd5, 0x13,
    0x26, 0x0b, 0xd7, 0x18, 0xfb, 0x27, 0x16, 0xf6, 0xd9, 0x18,
    0xef, 0xeb, 0x0f, 0xf5, 0xe4, 0x28, 0xdf, 0x34, 0xee, 0x06,
    0xfc, 0x17, 0x1e, 0x1a, 0x01, 0xfe, 0xd8, 0xff, 0xf4, 0xe0,
    0xb9, 0xea, 0xdf, 0x1a, 0x0e, 0xf6, 0x1e, 0x20, 0x1c, 0x14,
    0x0c, 0x1c, 0x09, 0xee, 0xf7, 0xfa, 0xfe, 0x22, 0xec, 0x1c,
    0xf9, 0x16, 0x19, 0x30, 0x1d, 0xd8, 0xf3, 0x1c, 0x11, 0x07,
    0x15, 0xe2, 0xeb, 0x06, 0xf2, 0x46, 0xf2, 0x08, 0x12, 0x0c,
    0x08, 0xfd, 0xe1, 0xe8, 0x2a, 0xf8, 0x1b, 0xf5, 0x11, 0xf5,
    0xdb, 0x1e, 0xe4, 0xf6, 0xe0, 0x19, 0x0c, 0xe6, 0x19, 0x04,
    0xf4, 0x01, 0x01, 0x0c, 0xcf, 0xec, 0x17, 0x2b, 0x1a, 0x05,
    0x16, 0x22, 0x1e, 0x0f, 0xfd, 0xc1, 0x1a, 0xf6, 0xfe, 0x02,
    0x11, 0xdd, 0xe4, 0x39, 0x0d, 0x0f, 0xe4, 0x0b, 0x0f, 0xf8,
    0x24, 0x0f, 0x17, 0xff, 0x0c, 0x06, 0xd0, 0x05, 0xec, 0xf8,
    0xe9, 0xe8, 0xcf, 0x2a, 0x16, 0x00, 0xe8, 0xc2, 0x0b, 0xfa,
    0x00, 0x10, 0xd4, 0xfc, 0xc9, 0x36, 0x20, 0x22, 0xf1, 0x14,
    0x09, 0xe1, 0xea, 0xd0, 0xe3, 0xfc, 0x2a, 0xc7, 0x07, 0xea,
    0xff, 0x38, 0xde, 0x39, 0x04, 0x33, 0x46, 0xd1, 0xfb, 0xc3,
    0x1e, 0xe8, 0x1a, 0xc9, 0x14, 0xd1, 0xb5, 0x41, 0xd9, 0x16,
    0x0b, 0x43, 0x38, 0xe8, 0x17, 0xbd, 0xf0, 0x04, 0x1a, 0xe9,
    0xf1, 0xc2, 0x07, 0x0e, 0xef, 0x2e, 0x1e, 0x45, 0x33, 0xe2,
    0x1a, 0xe0, 0xe8, 0xe2, 0x33, 0xec, 0xe6, 0xef, 0xef, 0x1e,
    0xb6, 0x23, 0x08, 0x4e, 0x42, 0xcc, 0x20, 0x02, 0x08, 0x00,
    0x36, 0xe9, 0xe0, 0xd5, 0xea, 0x2c, 0xd6, 0x14, 0x21, 0x36,
    0x41, 0xed, 0x1f, 0x07, 0xc5, 0xcd, 0x03, 0xe8, 0x07, 0xd2,
    0xc4, 0x14, 0xbe, 0x28, 0x2b, 0x36, 0x3d, 0xcf, 0xfa, 0xc2,
    0x47, 0x22, 0xca, 0x1f, 0x21, 0xed, 0xf3, 0x11, 0x09, 0xf4,
    0xcd, 0xd4, 0xda, 0x28, 0x36, 0xa7, 0x23, 0xfd, 0xf2, 0x25,
    0x21, 0x08, 0x29, 0x1a, 0x11, 0x15, 0xce, 0xdd, 0xdb, 0x30,
    0x14, 0xc0, 0x31, 0x11, 0x01, 0x25, 0x1a, 0xcf, 0xe7, 0x13,
    0x0d, 0x03, 0xdb, 0xdf, 0xea, 0x3a, 0x1d, 0xd0, 0x1f, 0x0f,
    0xcf, 0x1e, 0x0c, 0xf9, 0x17, 0x0f, 0x08, 0x0a, 0xe1, 0xd1,
    0xf2, 0x3a, 0x21, 0xc6, 0x3e, 0x02, 0xdb, 0x0c, 0x1e, 0xd6,
    0xde, 0x0e, 0x15, 0x12, 0xd1, 0xd0, 0xee, 0x3c, 0x2b, 0xac,
    0x4c, 0xe9, 0x0a, 0x1f, 0x1b, 0x04, 0x1c, 0xf7, 0x2c, 0x1c,
    0xcc, 0xd9, 0xf2, 0x28, 0x2c, 0xbe, 0x1e, 0xf4, 0xca, 0x10,
    0xfb, 0x2f, 0xe1, 0xe6, 0x17, 0xe0, 0xe6, 0xf6, 0xed, 0x05,
    0x1a, 0xec, 0xe9, 0xbf, 0xf1, 0xf7, 0x06, 0x28, 0xee, 0xf8,
    0x15, 0xd6, 0xf8, 0xf7, 0xde, 0x0b, 0x0d, 0x15, 0x0c, 0xc2,
    0xfe, 0xff, 0x1f, 0x1c, 0x13, 0x0b, 0xf4, 0xf8, 0xfd, 0xe5,
    0xcb, 0x27, 0xf7, 0xf7, 0xe6, 0xd2, 0xd9, 0xe7, 0x0c, 0x0c,
    0xe6, 0xf7, 0xe7, 0x0a, 0xf9, 0xeb, 0x00, 0xe5, 0x0d, 0x2c,
    0x08, 0xc2, 0x12, 0xe3, 0xee, 0x21, 0xec, 0x05, 0x0e, 0xde,
    0x07, 0xf1, 0xd1, 0x0c, 0xe4, 0x06, 0xff, 0xb8, 0x0d, 0xef,
    0x11, 0x03, 0x12, 0xe2, 0xdc, 0x05, 0xed, 0xf8, 0xdc, 0x13,
    0xf7, 0x1b, 0x17, 0x13, 0xdc, 0x10, 0x06, 0xe3, 0xe9, 0xfc,
    0xd8, 0x1f, 0x17, 0xe8, 0xda, 0x1a, 0xfa, 0x0a, 0xea, 0x14,
    0x0f, 0x11, 0xfa, 0x25, 0xe8, 0xfa, 0x1b, 0xe6, 0x17, 0xd1,
    0xfb, 0x00, 0x05, 0x12, 0x1d, 0x0a, 0xfb, 0xef, 0x05, 0xe7,
    0xf6, 0xed, 0x1f, 0x20, 0xe8, 0xe2, 0xfd, 0x12, 0x10, 0x04,
    0x0b, 0xf5, 0xee, 0xe7, 0xe2, 0x27, 0xf5, 0xf7, 0x0a, 0x02,
    0xf4, 0x05, 0xe7, 0x17, 0xfa, 0xed, 0xe9, 0xed, 0xd7, 0x05,
    0xe8, 0x0c, 0xf6, 0x0f, 0x20, 0x0e, 0x1e, 0x04, 0xf3, 0x14,
    0x30, 0x12, 0x34, 0xfb, 0x0e, 0x07, 0xd1, 0x00, 0xcf, 0xed,
    0xd5, 0xde, 0xef, 0x07, 0xf1, 0x10, 0x32, 0x2a, 0x0e, 0xd4,
    0x0a, 0x1e, 0xd8, 0x09, 0xff, 0xeb, 0xeb, 0x06, 0x0d, 0xdd,
    0xff, 0x28, 0x2e, 0x26, 0xf2, 0xc8, 0xf6, 0x06, 0x0d, 0x0e,
    0x18, 0x06, 0x03, 0xd3, 0x0d, 0xe3, 0xd9, 0x01, 0x42, 0x18,
    0x12, 0x04, 0xd5, 0xf3, 0x11, 0x21, 0xde, 0xd0, 0x0c, 0xd7,
    0x2b, 0xd5, 0xcd, 0xff, 0x30, 0x2c, 0x19, 0xe0, 0x17, 0x0a,
    0xeb, 0x25, 0x23, 0xe7, 0x15, 0xf0, 0x28, 0xf8, 0xfc, 0x0d,
    0x22, 0xf0, 0x33, 0x03, 0xfd, 0xe1, 0xf9, 0x12, 0x0e, 0xd8,
    0x1a, 0x17, 0x22, 0xdf, 0xfc, 0x04, 0x26, 0xf2, 0x13, 0xf5,
    0xfe, 0x0b, 0x23, 0x00, 0xf6, 0xda, 0x23, 0xdd, 0xee, 0xe7,
    0xea, 0xf6, 0x28, 0x0a, 0xee, 0xd6, 0xfa, 0xf8, 0x09, 0x23,
    0x39, 0xcd, 0x27, 0x0f, 0x25, 0xd3, 0xd3, 0x10, 0xfb, 0xea,
    0x24, 0xc8, 0x07, 0xea, 0x19, 0xf0, 0x25, 0xed, 0x06, 0x1b,
    0x17, 0xe7, 0xce, 0x2c, 0x07, 0x34, 0x0e, 0xce, 0xcc, 0x09,
    0x1d, 0x28, 0x29, 0xd0, 0x1b, 0xd8, 0x25, 0xe7, 0xe6, 0x0c,
    0xeb, 0x0c, 0x1c, 0xbc, 0xfc, 0xfa, 0x29, 0xf7, 0x22, 0x05,
    0x3a, 0xd7, 0x09, 0xd3, 0xf8, 0xfa, 0x0f, 0x02, 0xf0, 0xcd,
    0x0f, 0xfb, 0xef, 0x1e, 0x2e, 0xd0, 0x0f, 0xd0, 0x15, 0xfd,
    0xd1, 0x0c, 0x12, 0xe8, 0x34, 0xd4, 0x0e, 0x1e, 0x0b, 0x11,
    0x4b, 0xef, 0x23, 0xf2, 0x31, 0xf7, 0xf4, 0x09, 0x16, 0xe4,
    0x35, 0x14, 0x09, 0x3c, 0x13, 0x3e, 0x0a, 0xf5, 0x20, 0xd6,
    0xf4, 0xc2, 0xce, 0x35, 0xf9, 0x26, 0x14, 0x1d, 0x0a, 0x1d,
    0x2b, 0x3d, 0x14, 0xd2, 0x2e, 0xde, 0xd3, 0xb6, 0xe0, 0x56,
    0x19, 0x33, 0xfc, 0xf6, 0x0d, 0xed, 0x1b, 0x27, 0x08, 0xf3,
    0x1e, 0x06, 0xd3, 0xb3, 0xde, 0x60, 0x07, 0x3b, 0xe4, 0x13,
    0xf3, 0x2c, 0xee, 0x39, 0x19, 0xc0, 0x05, 0xf6, 0xd3, 0xbc,
    0xe3, 0x4f, 0x0f, 0x04, 0xf3, 0xfc, 0xc2, 0x1a, 0x3b, 0x3c,
    0x31, 0xf3, 0x36, 0xd4, 0xd9, 0xc9, 0xe9, 0x36, 0x1c, 0x28,
    0x14, 0x01, 0xf0, 0x2b, 0x05, 0x58, 0x3b, 0xec, 0x46, 0xe3,
    0xe5, 0xc1, 0xe4, 0x19, 0x2a, 0x2a, 0xe1, 0xfe, 0xf5, 0xb2,
    0xcb, 0xf8, 0x0c, 0x0b, 0xa9, 0xc7, 0x29, 0x2b, 0xf7, 0xbe,
    0xc9, 0x10, 0xc0, 0xe5, 0xf2, 0xc6, 0xc5, 0x1e, 0x2f, 0x06,
    0xe0, 0xcd, 0x25, 0x24, 0x01, 0xc7, 0xc7, 0x34, 0xe8, 0xf4,
    0xec, 0xb9, 0xc2, 0x00, 0x01, 0x05, 0xd1, 0xd7, 0x25, 0x1d,
    0xf9, 0xc0, 0xdc, 0x22, 0xeb, 0xe3, 0xea, 0xcc, 0xaa, 0x20,
    0x25, 0x04, 0xc9, 0xd2, 0x27, 0x21, 0x01, 0xb2, 0xdb, 0x31,
    0xe7, 0xf5, 0xf2, 0xce, 0xc4, 0x17, 0x16, 0x01, 0xcc, 0xdd,
    0x27, 0x29, 0xfe, 0xd7, 0xc9, 0x23, 0xe4, 0xfc, 0xfb, 0xab,
    0x9f, 0x04, 0x00, 0x09, 0xb6, 0xde, 0x2f, 0x2b, 0x00, 0xbd,
    0xd4, 0x21, 0x1b, 0x13, 0xe4, 0x0e, 0xbc, 0xf3, 0x13, 0x1f,
    0x14, 0xfd, 0xfa, 0x11, 0xf8, 0xec, 0xd0, 0x1c, 0x17, 0x0e,
    0xfe, 0x1a, 0xe9, 0xe4, 0x26, 0x27, 0x3d, 0x13, 0x06, 0x02,
    0xf7, 0x07, 0xe1, 0x26, 0x07, 0x00, 0xf4, 0x21, 0xfb, 0x04,
    0x00, 0x32, 0x1b, 0xfb, 0xf6, 0xfd, 0xee, 0xe1, 0xe5, 0x1e,
    0x15, 0x0d, 0xdc, 0x23, 0xda, 0xfb, 0x0a, 0x32, 0xfc, 0x01,
    0xfe, 0xf7, 0xf6, 0xde, 0xed, 0xfd, 0xeb, 0x0b, 0xee, 0x17,
    0xde, 0xd9, 0x09, 0x24, 0x19, 0xe6, 0xfc, 0x03, 0xfc, 0xf9,
    0xe0, 0x1f, 0xf0, 0x21, 0xdd, 0xfc, 0xee, 0xf5, 0x06, 0x29,
    0xef, 0x11, 0xfa, 0x04, 0xf8, 0xfa, 0xe8, 0x09, 0xfb, 0x40,
    0x11, 0x02, 0xd8, 0xf4, 0x16, 0x36, 0xe2, 0x01, 0x28, 0x0c,
    0x08, 0xd6, 0x00, 0x01, 0x02, 0x12, 0xea, 0x0a, 0xda, 0xdb,
    0x24, 0x26, 0xf1, 0xe4, 0x05, 0x1b, 0xf9, 0xfe, 0x14, 0xef,
    0x18, 0x19, 0xea, 0x01, 0x12, 0xf3, 0x1e, 0x14, 0x26, 0xfa,
    0xf8, 0x1f, 0x03, 0xd0, 0xea, 0x00, 0xe4, 0x07, 0xf2, 0x08,
    0xe6, 0xe5, 0x17, 0x2c, 0xf0, 0xfc, 0x07, 0x19, 0x04, 0xeb,
    0xe5, 0xe6, 0x1a, 0x2f, 0xeb, 0x1a, 0xfa, 0xc2, 0x17, 0x28,
    0x03, 0xf9, 0x06, 0x0c, 0x0c, 0xe7, 0x02, 0x02, 0xe3, 0x2f,
    0x23, 0xef, 0xd8, 0xc8, 0x09, 0x49, 0x2b, 0xd7, 0x0c, 0x23,
    0x0e, 0xe8, 0x06, 0xe0, 0x15, 0x41, 0xe8, 0xde, 0xe1, 0x09,
    0x10, 0x39, 0xf3, 0x1c, 0x00, 0x31, 0x15, 0xf7, 0xbb, 0x02,
    0xf8, 0x0e, 0x04, 0xdf, 0xc3, 0xf7, 0xff, 0x2f, 0xd3, 0x22,
    0x2f, 0x3b, 0x1a, 0xd3, 0xd1, 0x0c, 0x03, 0x40, 0x27, 0xd3,
    0xd8, 0x0c, 0x0e, 0x2a, 0x09, 0x1d, 0x28, 0x1b, 0x04, 0xdf,
    0xc5, 0xfd, 0xde, 0x2b, 0xf7, 0xd5, 0x09, 0xec, 0x23, 0x1a,
    0xf4, 0xee, 0x2a, 0x33, 0x1d, 0xd7, 0xda, 0xe3, 0xca, 0x26,
    0x29, 0xfc, 0xd7, 0x1f, 0x01, 0x0b, 0xe3, 0x0e, 0x09, 0x34,
    0x18, 0xe7, 0xdb, 0xf2, 0xe9, 0x2d, 0x0c, 0xf4, 0xd2, 0x11,
    0x25, 0x3b, 0xd0, 0xf9, 0x07, 0x22, 0x24, 0xcd, 0xb7, 0xe2,
    0xf8, 0x18, 0x30, 0xf9, 0xfc, 0xe5, 0x12, 0x44, 0x03, 0x09,
    0x0e, 0x1f, 0x1c, 0xd9, 0xec, 0x0c, 0xf8, 0x1c, 0x22, 0x02,
    0xde, 0xf8, 0x17, 0x1c, 0x0b, 0x15, 0xf5, 0x10, 0x20, 0xd2,
    0xd4, 0x06, 0x0e, 0x0c, 0x13, 0x23, 0xc9, 0xf2, 0x06, 0x2e,
    0xe9, 0x15, 0xe1, 0x24, 0x13, 0xe8, 0xd7, 0x16, 0xf1, 0xf6,
    0x0d, 0xfa, 0xd9, 0xdb, 0x02, 0x11, 0xeb, 0xf4, 0xfa, 0x1b,
    0x2a, 0xe2, 0xe6, 0xfb, 0x1e, 0x1f, 0xfe, 0x1c, 0x0b, 0xd5,
    0xf3, 0x22, 0x12, 0xfe, 0x02, 0x17, 0x1e, 0xd1, 0x0c, 0xed,
    0xcc, 0x12, 0x30, 0x00, 0xbf, 0xcf, 0x25, 0x23, 0x0d, 0x09,
    0xf0, 0x19, 0x23, 0xc9, 0xff, 0x07, 0x18, 0xfc, 0x30, 0xf5,
    0xd4, 0xb2, 0xe1, 0x19, 0xb4, 0x29, 0x09, 0x42, 0x42, 0xe4,
    0xd7, 0xec, 0xdb, 0x07, 0x0c, 0xde, 0xd9, 0xdd, 0xf0, 0x37,
    0xc1, 0x42, 0x1d, 0x42, 0x5a, 0xc2, 0x10, 0xe3, 0x0f, 0xf1,
    0x59, 0xca, 0xff, 0xc0, 0xeb, 0x2a, 0xde, 0x29, 0x1c, 0x53,
    0x5d, 0xe0, 0x1a, 0xfd, 0xf6, 0x0a, 0x3c, 0xed, 0xf0, 0xad,
    0xfc, 0x3c, 0xf8, 0x32, 0x05, 0x4b, 0x3e, 0xe4, 0xe7, 0xe3,
    0x02, 0xf1, 0x37, 0xee, 0x0e, 0xdb, 0xeb, 0x1f, 0xd6, 0x18,
    0x26, 0x4b, 0x27, 0xce, 0xea, 0xd7, 0xfe, 0xf4, 0x3e, 0xd4,
    0xe2, 0xe3, 0xf7, 0x1f, 0xf4, 0x13, 0x2b, 0x5b, 0x37, 0xb7,
    0xf3, 0xed, 0xcd, 0x04, 0xc6, 0xab, 0xcd, 0xcb, 0x24, 0x2f,
    0xbe, 0xc0, 0x2d, 0x12, 0xe3, 0x9e, 0xcc, 0x07, 0xe1, 0x0f,
    0xc2, 0xbb, 0x04, 0xcc, 0xf3, 0x27, 0xd9, 0xe6, 0x24, 0x0a,
    0xe3, 0xb9, 0xc7, 0x10, 0xdf, 0x0d, 0xd8, 0xa3, 0x06, 0x01,
    0xd9, 0x23, 0xd6, 0xb8, 0x2c, 0x10, 0xe7, 0xca, 0xe0, 0x11,
    0xf4, 0x15, 0xde, 0xb8, 0xf7, 0xc4, 0xde, 0x2c, 0x0c, 0xb9,
    0x29, 0x1b, 0xdd, 0xc5, 0xd2, 0xe9, 0xd6, 0x0c, 0xd0, 0x93,
    0xf3, 0xf3, 0xf2, 0x21, 0xe5, 0xd8, 0x29, 0x17, 0xe3, 0xd9,
    0xc6, 0x0f, 0x0b, 0x05, 0xc9, 0x9c, 0xe9, 0xe1, 0x09, 0x1e,
    0xf0, 0xd0, 0x37, 0x1d, 0xe3, 0xa5, 0xca, 0xf8, 0x22, 0x12,
    0x09, 0xbb, 0xd7, 0xc0, 0xed, 0x3e, 0xfc, 0xdc, 0x20, 0x1a,
    0xf2, 0xc9, 0x00, 0xf0, 0xfe, 0xfe, 0x04, 0xdc, 0xbb, 0xd0,
    0x1b, 0x1e, 0xf7, 0xfd, 0x11, 0x0d, 0xec, 0xcd, 0xfd, 0xe6,
    0xde, 0x19, 0x03, 0xc6, 0xbb, 0xf8, 0xf8, 0x2e, 0xe2, 0x00,
    0x14, 0x06, 0x0e, 0xf1, 0xe8, 0x1e, 0xd5, 0x0b, 0x0c, 0xc5,
    0xb9, 0xf4, 0x06, 0x30, 0xcd, 0xfa, 0x13, 0x0f, 0xf2, 0xc2,
    0xe7, 0xf6, 0x02, 0x2f, 0xfc, 0xdc, 0xd5, 0xf3, 0xe1, 0x3e,
    0xe9, 0xe9, 0x27, 0x01, 0xf8, 0xd9, 0xfa, 0xfd, 0xec, 0x2f,
    0xfb, 0xed, 0xf4, 0xd2, 0x08, 0x31, 0xff, 0xf3, 0x1b, 0x13,
    0xf3, 0xc4, 0xc3, 0xf1, 0x1d, 0x22, 0xed, 0x17, 0xeb, 0xdf,
    0x04, 0x11, 0xe5, 0xe0, 0x0d, 0x29, 0x01, 0xfc, 0xe6, 0x15,
    0x0c, 0xe8, 0xf9, 0x0e, 0x01, 0xd3, 0xe0, 0x14, 0x24, 0x1c,
    0x29, 0x26, 0x00, 0x08, 0xfe, 0x16, 0xda, 0xed, 0x07, 0x0a,
    0xe6, 0x09, 0xda, 0xfe, 0x10, 0xee, 0x32, 0x10, 0x04, 0xff,
    0x13, 0xf0, 0xeb, 0x2a, 0x0e, 0x10, 0xdc, 0xc7, 0xc8, 0x38,
    0xe1, 0xf7, 0x17, 0x18, 0x18, 0xe9, 0xee, 0x06, 0xf2, 0x15,
    0x19, 0xff, 0x1d, 0xe9, 0xe3, 0x0b, 0x03, 0xe6, 0x2d, 0x17,
    0xfc, 0x15, 0xed, 0x0e, 0x34, 0x2b, 0xe9, 0xf0, 0xe7, 0xd7,
    0x06, 0x09, 0x0e, 0x14, 0x1e, 0x0c, 0x0e, 0xf8, 0x1e, 0x18,
    0xd5, 0x08, 0x11, 0x0e, 0xd9, 0xe9, 0xd9, 0x3f, 0xf3, 0x1f,
    0x04, 0x12, 0x1b, 0x19, 0xe2, 0x22, 0x0b, 0xfc, 0xf7, 0x00,
    0xea, 0xee, 0xe0, 0x0e, 0xe2, 0x0a, 0xfc, 0x32, 0x09, 0xfd,
    0xda, 0xf6, 0x1b, 0xdf, 0xe7, 0xf5, 0xe2, 0xe3, 0x08, 0x09,
    0x13, 0x0c, 0x29, 0x27, 0x0f, 0xf7, 0xe4, 0xfd, 0xe3, 0xf8,
    0xfa, 0xff, 0xfc, 0xf9, 0x0b, 0x2c, 0x12, 0x00, 0x26, 0x2b,
    0x12, 0x21, 0xcf, 0xfa, 0x1c, 0xde, 0x0e, 0xf4, 0x08, 0x12,
    0x16, 0xff, 0x05, 0xf8, 0x20, 0x2a, 0x26, 0xe6, 0xcc, 0x15,
    0x0e, 0xf9, 0xf8, 0x08, 0xc9, 0x25, 0x1f, 0x12, 0xfb, 0x02,
    0x0a, 0x35, 0x00, 0xf5, 0x09, 0x33, 0xdb, 0xec, 0xf9, 0x05,
    0xdb, 0xf0, 0xe2, 0x16, 0x0a, 0x1a, 0xe7, 0x1a, 0x1e, 0x01,
    0xef, 0xf2, 0x18, 0xed, 0x08, 0xee, 0xe8, 0xe7, 0xdd, 0x15,
    0x0c, 0xfe, 0xd9, 0x0c, 0x14, 0xcd, 0xfc, 0xcb, 0x0d, 0x0c,
    0x28, 0x05, 0x05, 0xe7, 0xf7, 0x10, 0x1e, 0x29, 0xf0, 0x07,
    0x30, 0xd4, 0xea, 0xd3, 0x27, 0x07, 0x0d, 0xce, 0x11, 0x0e,
    0xc4, 0x34, 0xe3, 0x21, 0xf8, 0x12, 0x1e, 0x06, 0xea, 0xed,
    0x26, 0xf6, 0x0b, 0xd4, 0x1b, 0xdf, 0xf8, 0x31, 0x26, 0xf2,
    0xf0, 0xf9, 0x08, 0xec, 0xeb, 0xef, 0xe8, 0x02, 0xf2, 0x0d,
    0xe2, 0x0b, 0x07, 0x15, 0x19, 0xfc, 0xfe, 0x13, 0x21, 0xc1,
    0xdb, 0xd9, 0xdb, 0xf3, 0x26, 0xdd, 0x08, 0xba, 0xdc, 0x29,
    0xe1, 0x3f, 0x21, 0x30, 0x2a, 0xb5, 0x16, 0xd8, 0xde, 0xdc,
    0x37, 0xe2, 0xf6, 0xd8, 0xe2, 0x17, 0x04, 0x3e, 0x0c, 0x1e,
    0x46, 0xf6, 0x0e, 0xd2, 0x04, 0xfc, 0x40, 0xf7, 0xf1, 0xcc,
    0xda, 0x25, 0xec, 0x08, 0x1b, 0x47, 0x3b, 0xe6, 0x32, 0xcd,
    0xe0, 0xe8, 0x2c, 0xee, 0xc9, 0xf1, 0xfe, 0x12, 0xb8, 0x0e,
    0x12, 0x33, 0x2d, 0xd0, 0xeb, 0xee, 0xfb, 0xd3, 0x34, 0xc8,
    0x14, 0xc9, 0x00, 0x42, 0x04, 0x21, 0x1f, 0x37, 0x47, 0xd9,
    0x1e, 0xfa, 0xf8, 0xfb, 0x0f, 0x02, 0x11, 0xe0, 0xf5, 0x45,
    0xeb, 0x3e, 0xf7, 0x2d, 0x56, 0xd7, 0xe3, 0xda, 0xc6, 0x1c,
    0xd2, 0x8b, 0x08, 0xbb, 0xec, 0x25, 0xed, 0xbb, 0x31, 0x1d,
    0xd9, 0xc4, 0xa2, 0x03, 0xfd, 0x1d, 0xd4, 0xbc, 0xda, 0xff,
    0x17, 0x17, 0xc9, 0xc7, 0x2b, 0x01, 0xde, 0xdc, 0xe6, 0xef,
    0xda, 0x27, 0xc9, 0xc3, 0xfe, 0xb7, 0xda, 0x37, 0xcc, 0xd1,
    0x21, 0x14, 0xdf, 0xcc, 0xde, 0xf1, 0xe9, 0x12, 0xce, 0xac,
    0xe6, 0xc1, 0xec, 0x20, 0xf7, 0xbf, 0x1f, 0x14, 0xec, 0xd0,
    0xe4, 0x19, 0xfd, 0x0b, 0xdd, 0x81, 0xed, 0xf1, 0xd9, 0x1d,
    0xcf, 0xd3, 0x18, 0x14, 0xeb, 0xa6, 0xc8, 0xf2, 0xc0, 0x16,
    0xd6, 0xad, 0xea, 0xdd, 0x02, 0x27, 0xf8, 0xde, 0x35, 0x23,
    0xe4, 0xc4, 0xde, 0x09, 0xe0, 0x10, 0xea, 0xe9, 0xd9, 0xfc,
    0xe6, 0x3c, 0xc9, 0x0e, 0x29, 0x10, 0xf3, 0xba, 0xd2, 0xe4,
    0x1a, 0x39, 0xef, 0xd7, 0xe6, 0xe5, 0xdb, 0x4b, 0xd6, 0x0d,
    0x0f, 0x0b, 0xf7, 0xde, 0xe5, 0x04, 0x07, 0x29, 0xec, 0xd8,
    0xbc, 0xc9, 0xf1, 0x33, 0x18, 0xe0, 0x04, 0x10, 0x04, 0xde,
    0x0a, 0xe5, 0xd5, 0x0d, 0x0c, 0xe6, 0xf6, 0xcb, 0xec, 0x1b,
    0x01, 0x00, 0x1c, 0x07, 0xf1, 0xed, 0xea, 0x13, 0x12, 0x2a,
    0xfe, 0xc6, 0xe8, 0xc4, 0xf9, 0x3c, 0xe9, 0x05, 0x22, 0x0b,
    0xfc, 0xf3, 0xdd, 0xee, 0xdb, 0xf9, 0xf8, 0xcb, 0xdd, 0xeb,
    0xf8, 0x44, 0x06, 0xf3, 0x11, 0x15, 0xf2, 0xdd, 0xcf, 0x07,
    0x07, 0x0f, 0xee, 0x12, 0x22, 0xe3, 0xec, 0x2d, 0xf0, 0x18,
    0x26, 0x17, 0x08, 0xf9, 0x13, 0x32, 0x1e, 0xdc, 0x06, 0xde,
    0x03, 0xf0, 0x09, 0x15, 0xe4, 0x06, 0x12, 0x07, 0x0d, 0xf5,
    0xe0, 0xe9, 0x05, 0xed, 0xf8, 0xea, 0x05, 0xe8, 0xe9, 0x20,
    0x13, 0xf5, 0x10, 0x0f, 0xfb, 0xe6, 0xf5, 0x11, 0xfe, 0x06,
    0x14, 0xe6, 0x29, 0xff, 0xf5, 0x02, 0xfa, 0x0b, 0x19, 0x09,
    0xf1, 0xdd, 0xee, 0xee, 0x19, 0xd8, 0xf9, 0xf3, 0xf1, 0xfe,
    0xe7, 0x2b, 0xe8, 0xfc, 0x29, 0x10, 0x1d, 0xf3, 0x18, 0x14,
    0x0a, 0xe8, 0xfc, 0xfc, 0xe5, 0x0f, 0xeb, 0x42, 0x0b, 0xee,
    0x2b, 0x10, 0x0a, 0x03, 0xec, 0x15, 0x22, 0xe8, 0xdd, 0x1e,
    0xf5, 0xf1, 0x1b, 0x17, 0xe2, 0xe8, 0x1e, 0x28, 0x18, 0x01,
    0xf5, 0xed, 0xe9, 0x05, 0x18, 0x09, 0xc4, 0xe2, 0xdd, 0x22,
    0x14, 0xf0, 0x25, 0x1c, 0x09, 0x14, 0x02, 0x03, 0xef, 0xd9,
    0xf7, 0xe4, 0xce, 0x0f, 0xcf, 0x00, 0xe2, 0xf0, 0x0f, 0x2c,
    0x0f, 0xf7, 0x13, 0x2e, 0x1e, 0x0c, 0x15, 0xed, 0xe6, 0xfc,
    0xeb, 0x13, 0x2c, 0x0f, 0xfe, 0x31, 0x12, 0xfd, 0xe4, 0x1c,
    0x1e, 0xdc, 0x16, 0xf9, 0xe7, 0xfa, 0x0f, 0x1f, 0xd2, 0x1d,
    0x1a, 0x1a, 0x26, 0x28, 0xd8, 0xf8, 0x11, 0xd5, 0xfb, 0xdf,
    0xe0, 0xf2, 0x08, 0x29, 0x1a, 0x05, 0x0a, 0x1c, 0x1f, 0xe5,
    0xe2, 0x09, 0xf9, 0xf0, 0x13, 0xdf, 0xd1, 0xf5, 0xdc, 0x14,
    0x17, 0x28, 0xe6, 0x0c, 0x01, 0xe8, 0xe9, 0xdb, 0x14, 0xf0,
    0x04, 0xea, 0xe1, 0xdc, 0xdb, 0x38, 0xd6, 0x01, 0xed, 0x0a,
    0x1a, 0xfd, 0x23, 0xcf, 0xf0, 0xec, 0x00, 0xe4, 0xf4, 0xca,
    0x0a, 0x14, 0x26, 0xf7, 0xfb, 0x11, 0x0b, 0xf3, 0x08, 0xe5,
    0x30, 0x18, 0x08, 0x16, 0x09, 0xdb, 0x09, 0x2e, 0x02, 0xf1,
    0x06, 0x14, 0x28, 0xf2, 0xf8, 0xd5, 0x02, 0xff, 0xee, 0xd1,
    0xe6, 0xc9, 0xdf, 0x0c, 0xea, 0x13, 0xf0, 0x0d, 0x2c, 0xf1,
    0x0c, 0xf9, 0xe6, 0xf3, 0xfb, 0xe9, 0xf8, 0xdc, 0x03, 0x37,
    0x1a, 0x1e, 0xec, 0x12, 0x17, 0xf0, 0x0a, 0xdd, 0xd7, 0xd5,
    0x0e, 0xf1, 0x18, 0xfa, 0xf8, 0x36, 0xd9, 0x36, 0x22, 0x4b,
    0x26, 0xc7, 0xf7, 0x0c, 0xdd, 0xd9, 0x19, 0xd2, 0x0f, 0xce,
    0x06, 0x3b, 0xdc, 0x23, 0x2a, 0x46, 0x31, 0xcd, 0x1b, 0x11,
    0xd7, 0xeb, 0x2d, 0x03, 0xd5, 0x05, 0xf1, 0x46, 0xcd, 0x1a,
    0xe8, 0x26, 0x3a, 0xd4, 0x0d, 0xde, 0xe7, 0xd9, 0x11, 0xcc,
    0xec, 0xc0, 0xdd, 0x19, 0xff, 0x2e, 0x0c, 0x28, 0x47, 0xd0,
    0xfb, 0xcf, 0xff, 0xf5, 0x04, 0xe4, 0xdf, 0xfa, 0x03, 0x24,
    0xdd, 0x10, 0x03, 0x1f, 0x48, 0xbd, 0x0a, 0xfd, 0x0b, 0x07,
    0x41, 0xfe, 0xec, 0xb7, 0x00, 0x4d, 0xbd, 0x35, 0x0a, 0x4a,
    0x44, 0xcd, 0xf8, 0xdc, 0x35, 0x2f, 0xba, 0xf8, 0x15, 0xc9,
    0xe2, 0x1d, 0x0a, 0x14, 0xe6, 0xd1, 0xbc, 0x07, 0x0b, 0x9b,
    0x28, 0x2c, 0xce, 0xf9, 0x13, 0xc9, 0x11, 0x23, 0x16, 0x0e,
    0xf1, 0xd6, 0xbe, 0x11, 0x02, 0xaa, 0x26, 0x1e, 0xe2, 0xf3,
    0x14, 0xa8, 0xfb, 0x29, 0x0d, 0x15, 0xf6, 0xd1, 0xc8, 0x11,
    0x0f, 0x8f, 0x27, 0x1a, 0xb8, 0x05, 0x0e, 0xb7, 0x0b, 0x2a,
    0x0b, 0x24, 0xeb, 0xd9, 0xd0, 0x10, 0x0a, 0x9b, 0x2a, 0x1b,
    0xe1, 0xf6, 0x09, 0xd1, 0xf8, 0x2e, 0x06, 0x17, 0xe2, 0xd4,
    0xc0, 0x0d, 0xfe, 0x9c, 0x27, 0x2b, 0xc3, 0xf5, 0x1b, 0xcc,
    0x09, 0x2e, 0x06, 0x1a, 0xec, 0xd6, 0xc9, 0x23, 0x09, 0x9c,
    0xfb, 0x12, 0xdb, 0xc8, 0x1e, 0x09, 0xcb, 0x0b, 0xcf, 0xfc,
    0x05, 0x0d, 0xe3, 0xd9, 0x12, 0xe2, 0x02, 0x1c, 0xe7, 0xc4,
    0x02, 0xed, 0xe8, 0x13, 0xea, 0x13, 0x0c, 0x08, 0xf6, 0xe6,
    0x05, 0xe3, 0x16, 0x25, 0xde, 0xc1, 0x10, 0x06, 0xf1, 0x0b,
    0xc8, 0x04, 0x03, 0x0f, 0xfb, 0x09, 0xfd, 0xdd, 0xfe, 0x15,
    0x06, 0xb6, 0x05, 0xf0, 0xe8, 0xf7, 0xf2, 0xfd, 0xfa, 0x06,
    0xf7, 0xf4, 0x01, 0xe2, 0x05, 0x15, 0xe8, 0xd1, 0xfd, 0x11,
    0xd7, 0x0b, 0xd4, 0x0b, 0x06, 0xfd, 0xf1, 0xe3, 0xf9, 0xc6,
    0xf9, 0x16, 0xe7, 0xd4, 0xf3, 0xf0, 0xd9, 0x05, 0xe1, 0xe8,
    0x12, 0x1a, 0x02, 0xfc, 0x05, 0xcc, 0xf1, 0x01, 0xdb, 0xf3,
    0xf9, 0x2e, 0xc4, 0xe9, 0xea, 0x1f, 0x12, 0x12, 0xef, 0x04,
    0x32, 0x2c, 0x24, 0xf2, 0xf0, 0x06, 0xf3, 0x07, 0xba, 0xd5,
    0xe7, 0x0c, 0x16, 0x1e, 0x02, 0xf7, 0x1c, 0x16, 0xf6, 0x08,
    0x05, 0xe6, 0xe2, 0x2c, 0xc7, 0xd4, 0xf3, 0xf5, 0x12, 0x01,
    0x1a, 0x15, 0x34, 0x32, 0xed, 0x01, 0xd8, 0xf9, 0xcc, 0x30,
    0xa7, 0x01, 0xe3, 0x05, 0x1b, 0xe3, 0x0e, 0xf7, 0x2e, 0x2e,
    0x20, 0xec, 0xf5, 0x07, 0xf0, 0x0b, 0xa8, 0x05, 0xcd, 0xe7,
    0x0a, 0xf1, 0x00, 0x1a, 0x2c, 0x2a, 0x15, 0x09, 0x04, 0xf3,
    0xd9, 0x2b, 0xa9, 0xd9, 0xd9, 0x2a, 0x06, 0xf1, 0x26, 0x0b,
    0x2b, 0x18, 0x14, 0xd3, 0xee, 0xda, 0xc5, 0x45, 0xd7, 0xee,
    0xfa, 0x1d, 0x4b, 0xda, 0x00, 0x18, 0x17, 0x28, 0x05, 0xf3,
    0xc3, 0xd6, 0xe9, 0x1e, 0xea, 0xf6, 0xea, 0xe3, 0x33, 0xf1,
    0xe7, 0x19, 0xf3, 0x31, 0x1b, 0xf4, 0x04, 0xce, 0xd2, 0x34,
    0xeb, 0xd0, 0xfe, 0xe2, 0x33, 0xd6, 0xe1, 0x10, 0xf5, 0x3b,
    0xfc, 0xf8, 0x05, 0xdf, 0x01, 0x3e, 0xe8, 0xef, 0xe1, 0xf8,
    0x3d, 0xf7, 0xf0, 0x0b, 0xf8, 0x25, 0x0c, 0xe8, 0xf9, 0xeb,
    0xef, 0x3a, 0xe6, 0xe3, 0xd8, 0xf0, 0x41, 0x06, 0x07, 0x0e,
    0xf8, 0x32, 0x13, 0xf6, 0xe9, 0xe3, 0xcb, 0x23, 0xe6, 0xfa,
    0xf8, 0x0d, 0x3f, 0xe2, 0xfc, 0x2f, 0x1a, 0x39, 0x0a, 0xcf,
    0xde, 0x0f, 0xe9, 0xf1, 0x06, 0xe9, 0x36, 0xfb, 0x17, 0xf6,
    0x0d, 0x1f, 0x0b, 0xd5, 0x2a, 0xc3, 0x0b, 0x0e, 0x02, 0xf9,
    0x07, 0x06, 0x03, 0x06, 0x0b, 0xd8, 0xe9, 0x21, 0x0a, 0xd4,
    0xf5, 0xbd, 0xc4, 0x10, 0x01, 0xe7, 0x17, 0x19, 0x2a, 0xdf,
    0x26, 0x03, 0xf7, 0x25, 0x10, 0xf6, 0x2c, 0xc8, 0xe0, 0x18,
    0xdf, 0xf2, 0x04, 0x02, 0x20, 0x1e, 0x34, 0xf0, 0xef, 0x21,
    0x17, 0xe8, 0x1b, 0xc7, 0xd2, 0x0a, 0xd6, 0xf8, 0x0e, 0x0b,
    0x1b, 0x17, 0x34, 0x01, 0xf3, 0x26, 0x0a, 0xf2, 0x1c, 0xc9,
    0xd6, 0x1e, 0xf1, 0xf6, 0x04, 0xe1, 0x32, 0xed, 0x16, 0xe4,
    0x0a, 0x1d, 0x06, 0xfa, 0x23, 0x21, 0xd7, 0x01, 0xd6, 0x56,
    0x0b, 0x20, 0x17, 0xf4, 0xe9, 0xe0, 0xca, 0x31, 0xf6, 0x1d,
    0x16, 0x0e, 0xc3, 0xfc, 0xfb, 0x4f, 0x0b, 0x1a, 0x08, 0x1a,
    0x0c, 0xeb, 0xca, 0x48, 0xe7, 0x31, 0x08, 0x1b, 0xbd, 0x0c,
    0xea, 0x45, 0x08, 0x1e, 0x12, 0x06, 0xf7, 0x03, 0xee, 0x39,
    0xda, 0x14, 0x34, 0x1c, 0xcd, 0xfb, 0xf0, 0x5d, 0x09, 0x1d,
    0x16, 0x27, 0xe4, 0xfd, 0xcc, 0x2c, 0xe4, 0x21, 0x0e, 0x13,
    0xfc, 0x08, 0xe9, 0x41, 0x09, 0x05, 0x1f, 0x07, 0xf0, 0xfb,
    0xc9, 0x3a, 0xe9, 0x1d, 0x19, 0x0c, 0xed, 0x0b, 0xe4, 0x63,
    0x0f, 0x19, 0x0d, 0x10, 0x10, 0xf8, 0x0b, 0x2f, 0xe0, 0x1f,
    0x42, 0x15, 0x00, 0x00, 0x1e, 0x12, 0x00, 0x00, 0x16, 0x05,
    0x00, 0x00, 0x6d, 0x05, 0x00, 0x00, 0x24, 0x09, 0x00, 0x00,
    0x04, 0x15, 0x00, 0x00, 0xfd, 0x06, 0x00, 0x00, 0x4b, 0x09,
    0x00, 0x00, 0xa2, 0xff, 0xff, 0xff, 0xac, 0x95, 0x35, 0xa5,
    0x10, 0x8f, 0xc4, 0x9f, 0x57, 0x6e, 0x4e, 0xcd, 0xe7,
    0xf7, 0x40, 0xfe, 0xd0, 0xa4, 0xcb, 0xc1, 0x82, 0x4e,
    0x81, 0x6c, 0x68, 0x3f, 0xf4, 0x00, 0x95, 0x04, 0x00,
    0x00, 0x46, 0x04, 0x00, 0x00, 0x25, 0xf7, 0xff, 0xff
  };

  return AI_HANDLE_PTR(s_asc_weights);
}

