#include "har_ign_data.h"

ai_handle ai_har_ign_data_weights_get(void)
{

  AI_ALIGNED(4)
  static const ai_u8 s_har_ign_weights[ 5556 ] = {
    0xb6, 0xab, 0x71, 0x3e, 0x94, 0xc7, 0x4d, 0xbf, 0x32, 0x7a,
    0x51, 0x3f, 0xb9, 0x19, 0x7d, 0xbe, 0xef, 0x80, 0xca, 0xbd,
    0x82, 0xf7, 0x85, 0xbd, 0x66, 0x29, 0x59, 0x3e, 0xe6, 0xc4,
    0x27, 0x3e, 0x47, 0xb6, 0x64, 0xbe, 0x05, 0xa0, 0xac, 0x3c,
    0x32, 0x66, 0xa0, 0x3d, 0xb2, 0x25, 0x8c, 0xbe, 0xa4, 0xa6,
    0xa2, 0x3e, 0xf1, 0x96, 0x47, 0xbe, 0xef, 0xfd, 0x77, 0xbe,
    0xb6, 0x16, 0x88, 0x3e, 0x6c, 0xb1, 0x38, 0x3d, 0x92, 0x6e,
    0x07, 0x3e, 0xaf, 0x19, 0x27, 0xbe, 0xf5, 0xdd, 0xa0, 0x3e,
    0xfd, 0x6a, 0x96, 0xbe, 0x5d, 0x14, 0x96, 0x3e, 0x15, 0x0f,
    0x7e, 0xbe, 0x5f, 0xb3, 0x09, 0x3e, 0x60, 0xce, 0x90, 0x3c,
    0x0b, 0xa9, 0x4f, 0x3e, 0x4b, 0xd0, 0x39, 0xbe, 0x84, 0xb8,
    0x61, 0x3e, 0x52, 0xc7, 0x91, 0xbe, 0x0e, 0x9c, 0x73, 0x3e,
    0x82, 0xa4, 0x8a, 0xbe, 0xe2, 0x2b, 0x0b, 0x3e, 0x62, 0x7d,
    0x7d, 0xbe, 0x21, 0x76, 0x2d, 0xbd, 0xa4, 0xce, 0xab, 0x3e,
    0x73, 0xea, 0x8c, 0xbc, 0x52, 0x40, 0x12, 0x3d, 0xa0, 0x91,
    0x76, 0x3e, 0xc5, 0x8a, 0x15, 0xbd, 0x8c, 0x1f, 0x4b, 0xbe,
    0x9a, 0xe3, 0xfb, 0xbe, 0x6b, 0x74, 0x14, 0xbf, 0x3c, 0x20,
    0x18, 0xbf, 0x93, 0xd6, 0x96, 0x3e, 0x80, 0x45, 0xaf, 0x3e,
    0x72, 0xbc, 0x8f, 0xbc, 0x41, 0x15, 0x7b, 0x3e, 0xe5, 0xd4,
    0xce, 0x3e, 0xfb, 0x5f, 0x54, 0xbe, 0xd4, 0x7e, 0xef, 0x3a,
    0x77, 0x8e, 0xb9, 0xbe, 0x11, 0x51, 0xf2, 0xbe, 0x1b, 0x9c,
    0xa7, 0x3e, 0xdb, 0xc0, 0x45, 0x3e, 0xdc, 0x1f, 0x40, 0xbe,
    0xbe, 0x9c, 0x08, 0x3f, 0x3f, 0xa0, 0xfa, 0x3e, 0x36, 0x5f,
    0xe8, 0x3e, 0x04, 0x4b, 0xb4, 0x3e, 0x7a, 0x2b, 0x81, 0xbd,
    0x93, 0xd4, 0x98, 0xbd, 0x54, 0x02, 0x19, 0x3e, 0x04, 0x27,
    0xc6, 0xbe, 0xfc, 0xd2, 0x66, 0xbf, 0xba, 0x18, 0xb8, 0x3e,
    0xf2, 0x06, 0xc1, 0x3e, 0x87, 0xbb, 0x8e, 0x3e, 0x55, 0x8c,
    0x03, 0x3e, 0x4f, 0x2f, 0xd6, 0xbd, 0x73, 0xcc, 0xe9, 0xbe,
    0x57, 0x7c, 0x2c, 0xbf, 0x15, 0x7e, 0x16, 0xbf, 0xa7, 0xff,
    0x0e, 0xbf, 0x49, 0xfb, 0xe7, 0xbd, 0xca, 0xf7, 0x8f, 0x3c,
    0x87, 0xb5, 0x2b, 0x3e, 0x91, 0x06, 0xbe, 0x3e, 0x1e, 0x0e,
    0xc4, 0x3e, 0x55, 0xf8, 0xbd, 0x3e, 0x24, 0x05, 0x88, 0x3e,
    0xf4, 0x31, 0x53, 0x3e, 0x2f, 0xa6, 0xca, 0x3e, 0xec, 0xc1,
    0x49, 0x3e, 0x6f, 0x98, 0xa3, 0xbd, 0xba, 0xe2, 0x18, 0xbe,
    0x3d, 0x4f, 0xb5, 0xbe, 0xab, 0xc7, 0x80, 0xbe, 0x11, 0x8d,
    0xd7, 0x3c, 0x02, 0x18, 0x88, 0x3e, 0x8d, 0xfe, 0xb0, 0x3d,
    0x5a, 0xc1, 0xc8, 0xbd, 0x09, 0xfa, 0xfa, 0xbe, 0xaf, 0x04,
    0xed, 0xbe, 0xe4, 0x45, 0xfe, 0x3d, 0xa0, 0xdd, 0x06, 0x3f,
    0x6c, 0xae, 0xaf, 0x3e, 0x28, 0x9c, 0xef, 0x3e, 0x12, 0xff,
    0xa7, 0xbe, 0x97, 0x3d, 0xae, 0xbe, 0x50, 0xea, 0xbf, 0x3e,
    0x94, 0xda, 0x11, 0xbf, 0x13, 0xf3, 0xb8, 0xbe, 0x9d, 0xa1,
    0x0e, 0x3f, 0xd5, 0x36, 0x94, 0xbe, 0x7c, 0x1c, 0x97, 0xbe,
    0xdb, 0xdb, 0xc4, 0x3e, 0x7f, 0x7b, 0x88, 0x3d, 0xe4, 0x6f,
    0xa8, 0xbe, 0x3e, 0xed, 0x0d, 0x3e, 0x96, 0xe0, 0x81, 0xbc,
    0x58, 0xa7, 0x66, 0xbe, 0x68, 0x2f, 0xd4, 0x3b, 0xdf, 0xf9,
    0x28, 0xbf, 0xb0, 0xf2, 0x07, 0xbf, 0x71, 0x04, 0x93, 0xbe,
    0x74, 0xd8, 0x79, 0xbd, 0x6a, 0xc3, 0xa6, 0x3e, 0x57, 0x4b,
    0xba, 0x3e, 0x26, 0x41, 0x43, 0xbd, 0x26, 0x1d, 0x0c, 0x3e,
    0x90, 0x06, 0x4f, 0x3d, 0x07, 0xaa, 0x54, 0xbd, 0x65, 0x2e,
    0xcc, 0xbd, 0xe4, 0x71, 0xa7, 0x3d, 0x20, 0x8c, 0xb9, 0x3d,
    0x0b, 0xcb, 0xc0, 0xbc, 0xa9, 0x0a, 0x83, 0xbd, 0x0c, 0x48,
    0x86, 0x3d, 0x59, 0x22, 0x60, 0x3e, 0xb1, 0x1b, 0xba, 0x3e,
    0x98, 0x9c, 0x9c, 0xbd, 0x9a, 0x6b, 0x14, 0xbf, 0x59, 0xaf,
    0x9e, 0xbd, 0x5b, 0xa1, 0x1d, 0x3f, 0xee, 0x01, 0x8e, 0x3e,
    0x0c, 0x8f, 0x53, 0xbb, 0x3d, 0x83, 0x71, 0xbd, 0x85, 0x09,
    0x1e, 0xbe, 0x20, 0x30, 0xc1, 0xbc, 0x7a, 0xc7, 0xd7, 0x3e,
    0x9b, 0x8f, 0x1b, 0x3e, 0x67, 0x54, 0xdd, 0xbe, 0xa4, 0x30,
    0xb5, 0xbb, 0x25, 0x71, 0xbb, 0x3e, 0x2d, 0xf2, 0xe0, 0x3d,
    0xef, 0x5b, 0x97, 0x3d, 0xb3, 0x3c, 0xea, 0x3e, 0x87, 0x21,
    0xee, 0x3d, 0x36, 0x8e, 0xfe, 0x3e, 0xbb, 0x6f, 0x02, 0xbf,
    0x99, 0xfd, 0xdf, 0xba, 0x0d, 0x61, 0x20, 0xbe, 0xe2, 0x41,
    0x2f, 0xbe, 0x93, 0x3e, 0x1f, 0xbc, 0x95, 0x58, 0x99, 0xbd,
    0xf0, 0x51, 0x7e, 0x3e, 0xfe, 0x37, 0x0b, 0xbd, 0xa6, 0xea,
    0x5f, 0x3e, 0x2d, 0x14, 0x0b, 0xbf, 0x54, 0x6a, 0x29, 0xbf,
    0x51, 0x02, 0x2e, 0x3d, 0x60, 0x69, 0xa6, 0xba, 0x06, 0x65,
    0x08, 0xbe, 0x63, 0xbe, 0x84, 0xbe, 0x5d, 0x91, 0x72, 0xbe,
    0x50, 0x3c, 0x29, 0xbd, 0xc3, 0x0e, 0x69, 0x3e, 0xae, 0xd2,
    0xa4, 0x3e, 0xce, 0xb1, 0xfc, 0x3e, 0x51, 0x10, 0x01, 0x3f,
    0x81, 0xd7, 0x3a, 0x3e, 0xcb, 0xd4, 0x0e, 0xbe, 0x2f, 0x8d,
    0x28, 0xbf, 0xd3, 0x2c, 0x36, 0xbf, 0x3d, 0x36, 0xfe, 0xbd,
    0x2c, 0x09, 0xe3, 0x3e, 0x96, 0x4b, 0xc4, 0xbe, 0xe7, 0x08,
    0xc3, 0xbe, 0xcc, 0x12, 0xbb, 0x3e, 0x00, 0xf8, 0xb2, 0x3e,
    0x7b, 0x6e, 0xbe, 0xbe, 0x23, 0xa8, 0x02, 0x3d, 0xbc, 0xaa,
    0x19, 0x3e, 0xf1, 0xff, 0x24, 0x3e, 0xf3, 0xe0, 0x9b, 0x3e,
    0x89, 0x73, 0xd0, 0x3d, 0x8a, 0x9a, 0x3c, 0xbc, 0xee, 0x76,
    0xe7, 0x3d, 0xd7, 0xf2, 0xd6, 0xbc, 0x05, 0xfe, 0x2d, 0x3e,
    0xa9, 0xe9, 0x53, 0xbe, 0xc1, 0x09, 0x71, 0xbf, 0x91, 0xc0,
    0x29, 0x3f, 0xe3, 0x4f, 0x03, 0xbe, 0xac, 0xa7, 0x90, 0xbe,
    0x98, 0xfe, 0xde, 0xbe, 0xb7, 0x24, 0xef, 0xbd, 0xdb, 0x7a,
    0xf4, 0xbd, 0x36, 0x10, 0xfd, 0xbd, 0x91, 0xe9, 0x13, 0x3e,
    0x05, 0x0d, 0x20, 0x3d, 0xb7, 0x88, 0xa9, 0x3e, 0x9e, 0x28,
    0x88, 0x3d, 0xae, 0xa9, 0x75, 0xbe, 0xc9, 0x37, 0x2c, 0xbe,
    0xd4, 0xf8, 0x27, 0xbe, 0xa8, 0x86, 0x40, 0xbe, 0xf9, 0x88,
    0x36, 0xbe, 0x51, 0x2e, 0xae, 0xbe, 0x09, 0x22, 0xd3, 0xbe,
    0xb4, 0xe5, 0x1e, 0xbf, 0xe4, 0x73, 0xc6, 0xbe, 0x88, 0x92,
    0xf7, 0xbe, 0xb7, 0x80, 0xef, 0xbe, 0xe6, 0xd8, 0xa1, 0xbc,
    0x9d, 0x79, 0xd0, 0xbd, 0xb1, 0x5f, 0x46, 0x3e, 0x96, 0x25,
    0x85, 0x3e, 0x41, 0xbe, 0x9f, 0x3e, 0x59, 0xeb, 0x8a, 0x3e,
    0x06, 0x15, 0xa1, 0x3e, 0xc2, 0xbe, 0x25, 0x3e, 0x3e, 0x46,
    0x50, 0x3e, 0x6f, 0x43, 0xad, 0x3d, 0x10, 0xde, 0x8c, 0x3b,
    0xa7, 0x51, 0xb7, 0x3e, 0x27, 0x53, 0x88, 0xbe, 0x63, 0xf9,
    0xfb, 0x3e, 0x78, 0xd3, 0x16, 0x3e, 0x66, 0x08, 0xb3, 0xbe,
    0xd9, 0x78, 0xc1, 0x3e, 0x92, 0x9f, 0xe3, 0xbe, 0x03, 0xc0,
    0x3e, 0xbd, 0x75, 0xce, 0x2e, 0xbf, 0xf4, 0x22, 0x5c, 0xbe,
    0x41, 0xe6, 0xa2, 0xbe, 0x85, 0xf7, 0x2a, 0x3e, 0x7f, 0x8d,
    0x30, 0x3d, 0xbf, 0xbf, 0x09, 0x3f, 0xca, 0x31, 0x80, 0x3e,
    0xde, 0x64, 0x02, 0xbf, 0xf8, 0xaf, 0xd8, 0xbe, 0xc4, 0x6c,
    0x5d, 0xbd, 0xd3, 0xb0, 0xf3, 0xbd, 0x85, 0x17, 0x99, 0x3e,
    0x72, 0x9a, 0xa0, 0x3e, 0x54, 0xac, 0xa3, 0x3e, 0x9a, 0x58,
    0x8c, 0x3e, 0x4b, 0x4d, 0x41, 0x3e, 0xc3, 0x96, 0x51, 0xbc,
    0x14, 0xe3, 0x19, 0xbe, 0x3f, 0x0e, 0xb6, 0xbe, 0xf2, 0xe5,
    0x6d, 0xbe, 0xda, 0x52, 0xd2, 0xbe, 0x7c, 0x13, 0x0c, 0xbf,
    0x42, 0x55, 0x85, 0xbe, 0xcc, 0xc5, 0x18, 0x3f, 0xc6, 0x02,
    0xae, 0x3e, 0xcd, 0xf3, 0xce, 0x3e, 0xd6, 0x32, 0x42, 0xbd,
    0xf9, 0x86, 0xb9, 0xbe, 0x63, 0xa8, 0x04, 0xbf, 0xac, 0xea,
    0x2e, 0xbe, 0x67, 0x68, 0x94, 0x3c, 0xb8, 0x5b, 0xc3, 0x3c,
    0xcc, 0x3c, 0x72, 0xbe, 0xa5, 0xf9, 0xc1, 0xbe, 0xa0, 0xd1,
    0x13, 0x3e, 0x8d, 0x68, 0x5b, 0x3e, 0x58, 0xd5, 0xd5, 0x3d,
    0x39, 0xe6, 0x30, 0xbe, 0x83, 0xc2, 0x63, 0x3e, 0x20, 0xa7,
    0xce, 0xbe, 0x3f, 0xb5, 0xd2, 0xbd, 0x33, 0xa1, 0x0c, 0x3f,
    0xd3, 0x78, 0xaf, 0x3e, 0x75, 0x8b, 0x0b, 0xbe, 0x28, 0xe9,
    0x1e, 0x3f, 0x7e, 0x7c, 0x6a, 0xbe, 0xd2, 0xf7, 0xb0, 0xbe,
    0xea, 0x0d, 0x6c, 0x3d, 0xd1, 0x51, 0x6d, 0x3d, 0xc8, 0xe3,
    0x96, 0x3d, 0xde, 0x26, 0x73, 0x3d, 0x40, 0x90, 0x1a, 0xbe,
    0x2b, 0x78, 0xa8, 0xbe, 0x2f, 0xeb, 0xb1, 0x3d, 0x0a, 0x2a,
    0xe1, 0x3e, 0x66, 0x95, 0x76, 0x3e, 0x4c, 0xba, 0x1d, 0xbe,
    0xf8, 0x64, 0x7f, 0xbc, 0x55, 0x63, 0x83, 0xbe, 0x5a, 0xd1,
    0xe9, 0xbd, 0x0a, 0x47, 0x1b, 0xbe, 0x69, 0x69, 0x80, 0x3d,
    0x8f, 0x5a, 0xd5, 0xbc, 0x0b, 0x85, 0x40, 0x3d, 0xd9, 0xc7,
    0x58, 0x3d, 0x5b, 0x15, 0x98, 0x3d, 0x84, 0x60, 0x1b, 0x3f,
    0x51, 0x4a, 0x79, 0xbd, 0xfe, 0xa8, 0x32, 0x3f, 0x88, 0x45,
    0xb3, 0xbe, 0xf0, 0x7a, 0x2e, 0xbf, 0x54, 0xd2, 0xbc, 0xbe,
    0xfd, 0x98, 0x2a, 0x3f, 0x36, 0x4c, 0xa8, 0xbe, 0xb9, 0x12,
    0xf9, 0x3c, 0x39, 0xfc, 0xac, 0x3d, 0x04, 0xaa, 0x36, 0x3c,
    0x21, 0x7e, 0xc2, 0xbd, 0x26, 0x35, 0x8a, 0xbd, 0x3f, 0xa7,
    0x10, 0x3c, 0x74, 0x48, 0xa1, 0xbc, 0x48, 0x88, 0x5e, 0xba,
    0x77, 0xc4, 0x73, 0xbe, 0x29, 0xd9, 0xa7, 0x3e, 0xa8, 0x12,
    0xf8, 0xbe, 0xdd, 0xb6, 0x5b, 0x3f, 0x02, 0xb8, 0xd7, 0xbe,
    0x10, 0xc7, 0xb0, 0xbe, 0xb4, 0xc9, 0x5f, 0xbe, 0x79, 0x37,
    0x62, 0x3b, 0xfd, 0xf7, 0xa0, 0xbd, 0x75, 0x6a, 0xe8, 0x3e,
    0xe4, 0x8b, 0x1d, 0xbe, 0x94, 0x9f, 0x27, 0x3f, 0x06, 0x02,
    0x94, 0xbd, 0x54, 0x20, 0xdb, 0x3e, 0x04, 0xcf, 0xe7, 0xbe,
    0x66, 0x28, 0x1b, 0x3e, 0x82, 0x76, 0x5a, 0x3e, 0xe5, 0x58,
    0x06, 0xbf, 0x2e, 0x22, 0xb0, 0x3e, 0x2e, 0x7f, 0xf2, 0xbe,
    0xb0, 0x63, 0x27, 0x3c, 0x0e, 0xd0, 0xb1, 0x3e, 0x47, 0x09,
    0x09, 0x3f, 0x27, 0x65, 0xfc, 0x3e, 0x04, 0xe0, 0x90, 0x3e,
    0xf0, 0x4f, 0x19, 0x3e, 0x67, 0x73, 0xbe, 0x3d, 0x02, 0xaf,
    0xa6, 0x3d, 0xd8, 0xbf, 0x1a, 0xbe, 0xa4, 0x75, 0x11, 0xbe,
    0x85, 0x31, 0xd3, 0xbe, 0x24, 0x29, 0xc1, 0xbe, 0x45, 0x03,
    0x9a, 0xbd, 0x60, 0xa7, 0x92, 0xbd, 0x29, 0xa4, 0xac, 0xbe,
    0x0a, 0x4e, 0xd3, 0xbe, 0x96, 0x1d, 0xba, 0xbe, 0x24, 0x74,
    0x89, 0xbe, 0x7c, 0x95, 0x25, 0x3f, 0x30, 0x73, 0x9d, 0x3e,
    0x0c, 0x60, 0x7a, 0x3e, 0x6b, 0x74, 0xce, 0xbe, 0x59, 0x16,
    0xd3, 0xbe, 0xcc, 0x16, 0x9f, 0xbe, 0xfd, 0x0b, 0xa1, 0x3a,
    0x09, 0xc2, 0x74, 0xbe, 0x31, 0xec, 0x73, 0xbd, 0x70, 0xa2,
    0x6d, 0xbe, 0x59, 0x31, 0xef, 0x3d, 0x6d, 0x36, 0x03, 0x3e,
    0x89, 0x0b, 0x32, 0x3e, 0x49, 0xab, 0xa2, 0xbe, 0xd5, 0x80,
    0x20, 0x3f, 0x1d, 0xdb, 0xfb, 0xbe, 0x4a, 0xef, 0xb8, 0xbe,
    0x31, 0x36, 0x65, 0xbe, 0x03, 0x11, 0x90, 0xbe, 0xca, 0xcd,
    0x41, 0x3d, 0xbc, 0x5b, 0x13, 0xbe, 0xb0, 0x08, 0x82, 0x3e,
    0x07, 0x99, 0x99, 0x3e, 0x62, 0xd1, 0xb8, 0x3e, 0xde, 0xda,
    0x42, 0x3e, 0xf9, 0x17, 0x4d, 0xbe, 0x08, 0xa9, 0x93, 0xbc,
    0xa9, 0xf1, 0x90, 0xbe, 0xc5, 0xf0, 0xbb, 0x3d, 0x74, 0xfc,
    0xc1, 0x3e, 0x7b, 0x21, 0xdc, 0x3e, 0xd9, 0x2e, 0xf3, 0x3b,
    0x94, 0x99, 0x9d, 0x3e, 0xc6, 0xe2, 0x38, 0xbe, 0x48, 0xc0,
    0x93, 0x37, 0x28, 0xaa, 0x58, 0xb8, 0x18, 0xc4, 0x33, 0xbc,
    0xa9, 0x12, 0x2b, 0xba, 0xfd, 0x36, 0x5a, 0xba, 0x3b, 0x58,
    0x20, 0xbb, 0xbe, 0x8a, 0x3e, 0xbf, 0xfa, 0xc1, 0xc4, 0x38,
    0xbc, 0xdd, 0x33, 0xbe, 0x51, 0x6a, 0x48, 0xbf, 0x89, 0x9c,
    0xfd, 0xbc, 0x07, 0x1f, 0x09, 0x3a, 0x35, 0x84, 0xfa, 0xbd,
    0xf8, 0x59, 0x27, 0xbe, 0x43, 0x93, 0xcc, 0xbe, 0xf1, 0xe5,
    0x7a, 0x3a, 0x57, 0x94, 0x53, 0x3b, 0xc7, 0xd0, 0x97, 0x3a,
    0xdd, 0x57, 0x94, 0xbc, 0x4e, 0x0c, 0x8f, 0x3a, 0x37, 0xa4,
    0x23, 0xbe, 0xfd, 0xfc, 0xf0, 0xbf, 0xe4, 0x0e, 0xef, 0xbf,
    0xcb, 0x20, 0xed, 0xbf, 0xb3, 0x32, 0xeb, 0xbf, 0x9a, 0x44,
    0xe9, 0xbf, 0x81, 0x56, 0xe7, 0xbf, 0x43, 0x36, 0xe6, 0xbf,
    0x4f, 0x7a, 0xe3, 0xbf, 0x36, 0x8c, 0xe1, 0xbf, 0x1e, 0x9e,
    0xdf, 0xbf, 0x01, 0x49, 0xdd, 0xbf, 0xec, 0xc1, 0xdb, 0xbf,
    0xd2, 0xfd, 0xd9, 0xbf, 0xba, 0xe5, 0xd7, 0xbf, 0xa2, 0xf7,
    0xd5, 0xbf, 0x89, 0x09, 0xd4, 0xbf, 0x70, 0x1b, 0xd2, 0xbf,
    0x57, 0x2d, 0xd0, 0xbf, 0x3e, 0x3f, 0xce, 0xbf, 0xf4, 0xeb,
    0xcc, 0xbf, 0x0d, 0x63, 0xca, 0xbf, 0xdc, 0xcf, 0xc8, 0xbf,
    0x3c, 0x51, 0xc7, 0xbf, 0xfc, 0x3e, 0xc5, 0xbf, 0xa9, 0xaa,
    0xc2, 0xbf, 0xdf, 0x06, 0xc0, 0xbf, 0x78, 0xce, 0xbe, 0xbf,
    0xb7, 0x73, 0xbc, 0xbf, 0x7c, 0x1d, 0xba, 0xbf, 0x7e, 0xfa,
    0xb8, 0xbf, 0xf4, 0xd9, 0xb7, 0xbf, 0xfc, 0x27, 0xb5, 0xbf,
    0xc4, 0x5a, 0xb3, 0xbf, 0xca, 0x4b, 0xb1, 0xbf, 0xb1, 0x5d,
    0xaf, 0xbf, 0x98, 0x6f, 0xad, 0xbf, 0x79, 0x48, 0xab, 0xbf,
    0x67, 0x93, 0xa9, 0xbf, 0x8a, 0x69, 0xa7, 0xbf, 0x62, 0x43,
    0xa5, 0xbf, 0x02, 0x2b, 0xa3, 0xbf, 0x04, 0xdb, 0xa1, 0xbf,
    0xeb, 0xec, 0x9f, 0xbf, 0x2b, 0x4e, 0x9e, 0xbf, 0xb9, 0x10,
    0x9c, 0xbf, 0xa0, 0x22, 0x9a, 0xbf, 0x22, 0x8a, 0x97, 0xbf,
    0x70, 0xf7, 0x95, 0xbf, 0x56, 0x58, 0x94, 0xbf, 0x0e, 0xe1,
    0x92, 0xbf, 0x24, 0x7c, 0x90, 0xbf, 0x62, 0x0b, 0x8f, 0xbf,
    0x6c, 0xe6, 0x8b, 0xbf, 0xda, 0xb1, 0x8a, 0xbf, 0x00, 0x89,
    0x88, 0xbf, 0xb4, 0x9c, 0x86, 0xbf, 0x8f, 0xe7, 0x84, 0xbf,
    0x77, 0xf9, 0x82, 0xbf, 0x5e, 0x0b, 0x81, 0xbf, 0x1c, 0xf2,
    0x7e, 0xbf, 0xfd, 0xa9, 0x7b, 0xbf, 0xef, 0x06, 0x77, 0xbf,
    0x40, 0xae, 0x72, 0xbf, 0x6f, 0x73, 0x6f, 0xbf, 0x6e, 0x7c,
    0x6a, 0xbf, 0x8a, 0xb2, 0x67, 0xbf, 0xc7, 0x19, 0x62, 0xbf,
    0xd8, 0x47, 0x5d, 0xbf, 0x00, 0x6a, 0x5b, 0xbf, 0x5d, 0x4a,
    0x57, 0xbf, 0xc6, 0x88, 0x54, 0xbf, 0x36, 0xe8, 0x4f, 0xbf,
    0xf6, 0x13, 0x4d, 0xbf, 0x18, 0xc7, 0x49, 0xbf, 0x7a, 0x1f,
    0x44, 0xbf, 0xfa, 0xd5, 0x41, 0xbf, 0x70, 0x93, 0x3c, 0xbf,
    0xf1, 0xf1, 0x37, 0xbf, 0x3f, 0x11, 0x36, 0xbf, 0x88, 0xd7,
    0x30, 0xbf, 0x5b, 0xfd, 0x2d, 0xbf, 0xb7, 0xda, 0x28, 0xbf,
    0x47, 0x21, 0x25, 0xbf, 0x09, 0x5e, 0x21, 0xbf, 0x57, 0x07,
    0x1e, 0xbf, 0x1d, 0xa6, 0x19, 0xbf, 0xcf, 0x98, 0x15, 0xbf,
    0xb6, 0x36, 0x12, 0xbf, 0x55, 0xf6, 0x0e, 0xbf, 0x2c, 0xe0,
    0x0a, 0xbf, 0xfb, 0x15, 0x06, 0xbf, 0xbf, 0x20, 0x03, 0xbf,
    0x02, 0x7e, 0xfb, 0xbe, 0x18, 0x3e, 0xf6, 0xbe, 0xad, 0x9a,
    0xef, 0xbe, 0xc9, 0x4d, 0xe8, 0xbe, 0x31, 0xaa, 0xe0, 0xbe,
    0xe6, 0x24, 0xda, 0xbe, 0xcc, 0x07, 0xd2, 0xbe, 0x57, 0x86,
    0xc8, 0xbe, 0x3b, 0xe7, 0xc0, 0xbe, 0x52, 0x9c, 0xb7, 0xbe,
    0x51, 0xf4, 0xad, 0xbe, 0xaa, 0x3e, 0xa6, 0xbe, 0xe7, 0xec,
    0x9f, 0xbe, 0x0e, 0xf1, 0x99, 0xbe, 0xcc, 0x65, 0x90, 0xbe,
    0xb2, 0x27, 0x89, 0xbe, 0xeb, 0x54, 0x81, 0xbe, 0x1c, 0x9b,
    0x72, 0xbe, 0x26, 0xc7, 0x67, 0xbe, 0xad, 0xdb, 0x57, 0xbe,
    0x5c, 0xce, 0x49, 0xbe, 0x38, 0x72, 0x36, 0xbe, 0x8a, 0x7a,
    0x24, 0xbe, 0x0a, 0xe2, 0x13, 0xbe, 0xe4, 0xc4, 0x04, 0xbe,
    0xd3, 0x8f, 0xf1, 0xbd, 0x9c, 0x8d, 0xd5, 0xbd, 0x18, 0x64,
    0xb8, 0xbd, 0xb1, 0xd7, 0x92, 0xbd, 0x66, 0xec, 0x6a, 0xbd,
    0xa8, 0x59, 0x32, 0xbd, 0x68, 0x48, 0xdf, 0xbc, 0xea, 0x4c,
    0x56, 0xbc, 0x08, 0x15, 0xf6, 0x3a, 0x8a, 0x15, 0x85, 0x3c,
    0x79, 0x6b, 0xfd, 0x3c, 0xfd, 0xd5, 0x37, 0x3d, 0x87, 0x2a,
    0x78, 0x3d, 0xd2, 0x47, 0x9d, 0x3d, 0x2a, 0x48, 0xbe, 0x3d,
    0xc4, 0xed, 0xe1, 0x3d, 0x1c, 0x52, 0x00, 0x3e, 0x75, 0x90,
    0x0d, 0x3e, 0xa0, 0xb4, 0x1c, 0x3e, 0x0f, 0xe3, 0x2a, 0x3e,
    0xb8, 0x7a, 0x3c, 0x3e, 0xbd, 0xb9, 0x48, 0x3e, 0x4d, 0xd5,
    0x54, 0x3e, 0x7a, 0x5c, 0x64, 0x3e, 0xa4, 0xcd, 0x74, 0x3e,
    0xfa, 0xbd, 0x82, 0x3e, 0x11, 0x52, 0x8b, 0x3e, 0x41, 0x98,
    0x92, 0x3e, 0xb8, 0x50, 0x9b, 0x3e, 0x62, 0xb0, 0xa1, 0x3e,
    0x0f, 0xd6, 0xa8, 0x3e, 0x25, 0x6d, 0xaf, 0x3e, 0x76, 0xa9,
    0xb7, 0x3e, 0x5d, 0x07, 0xc2, 0x3e, 0x0c, 0xb5, 0xca, 0x3e,
    0x2b, 0x49, 0xd1, 0x3e, 0xd6, 0x1d, 0xd9, 0x3e, 0x7f, 0x32,
    0xe0, 0x3e, 0x97, 0x65, 0xe7, 0x3e, 0x28, 0x93, 0xf1, 0x3e,
    0xe2, 0x44, 0xf7, 0x3e, 0xf9, 0xa2, 0x00, 0x3f, 0xa2, 0xdc,
    0x03, 0x3f, 0xf1, 0xd1, 0x07, 0x3f, 0xa9, 0x0f, 0x0c, 0x3f,
    0x76, 0xc8, 0x0f, 0x3f, 0x61, 0xcd, 0x12, 0x3f, 0xb7, 0xa4,
    0x17, 0x3f, 0xa1, 0x95, 0x1a, 0x3f, 0x29, 0x6a, 0x1f, 0x3f,
    0x3a, 0x8f, 0x23, 0x3f, 0xdc, 0xb1, 0x26, 0x3f, 0xe6, 0xd0,
    0x2a, 0x3f, 0x09, 0xb6, 0x2d, 0x3f, 0xe0, 0xa2, 0x31, 0x3f,
    0x25, 0xc9, 0x35, 0x3f, 0x73, 0x7b, 0x39, 0x3f, 0xc0, 0x92,
    0x3e, 0x3f, 0x20, 0xc8, 0x40, 0x3f, 0x37, 0x40, 0x44, 0x3f,
    0x1c, 0x2d, 0x49, 0x3f, 0x34, 0x86, 0x4d, 0x3f, 0x16, 0x26,
    0x51, 0x3f, 0x3e, 0x3f, 0x53, 0x3f, 0x1d, 0xb5, 0x58, 0x3f,
    0x52, 0x92, 0x5b, 0x3f, 0x10, 0x8b, 0x61, 0x3f, 0x01, 0x11,
    0x64, 0x3f, 0x4d, 0x3f, 0x66, 0x3f, 0x87, 0x82, 0x6b, 0x3f,
    0x47, 0xde, 0x6f, 0x3f, 0x99, 0xb8, 0x73, 0x3f, 0x94, 0x23,
    0x77, 0x3f, 0x4a, 0x99, 0x7a, 0x3f, 0x11, 0x26, 0x7f, 0x3f,
    0xd1, 0x3c, 0x82, 0x3f, 0x55, 0x1e, 0x84, 0x3f, 0xd1, 0x71,
    0x85, 0x3f, 0xea, 0x5f, 0x87, 0x3f, 0x03, 0x4e, 0x89, 0x3f,
    0x1c, 0x3c, 0x8b, 0x3f, 0x35, 0x2a, 0x8d, 0x3f, 0xe1, 0xb5,
    0x8e, 0x3f, 0x66, 0x06, 0x91, 0x3f, 0x5e, 0x41, 0x92, 0x3f,
    0x98, 0xe2, 0x94, 0x3f, 0xad, 0xc1, 0x96, 0x3f, 0xc9, 0xbe,
    0x98, 0x3f, 0xe2, 0xac, 0x9a, 0x3f, 0xde, 0x2c, 0x9c, 0x3f,
    0x97, 0x04, 0x9f, 0x3f, 0x77, 0x7b, 0xa0, 0x3f, 0x45, 0x65,
    0xa2, 0x3f, 0xf1, 0x1d, 0xa4, 0x3f, 0x53, 0xb9, 0xa5, 0x3f,
    0x03, 0xc6, 0xa7, 0x3f, 0xd7, 0xe6, 0xa9, 0x3f, 0xc2, 0x0b,
    0xac, 0x3f, 0xda, 0xf9, 0xad, 0x3f, 0xf3, 0xe7, 0xaf, 0x3f,
    0x5d, 0x0f, 0xb2, 0x3f, 0x25, 0xc4, 0xb3, 0x3f, 0x3e, 0xb2,
    0xb5, 0x3f, 0xd0, 0x9e, 0xb7, 0x3f, 0xb3, 0x14, 0xba, 0x3f,
    0x88, 0x7c, 0xbb, 0x3f, 0x6a, 0x0d, 0xbd, 0x3f, 0xba, 0x58,
    0xbf, 0x3f, 0x29, 0xec, 0xc0, 0x3f, 0xfa, 0xfc, 0xc2, 0x3f,
    0xa4, 0x21, 0xc5, 0x3f, 0x1d, 0x11, 0xc7, 0x3f, 0x36, 0xff,
    0xc8, 0x3f, 0x4f, 0xed, 0xca, 0x3f, 0xac, 0xeb, 0xcb, 0x3f,
    0xfc, 0x92, 0xcf, 0x3f, 0x99, 0xb7, 0xd0, 0x3f, 0x41, 0x4b,
    0xd2, 0x3f, 0xcb, 0x93, 0xd4, 0x3f, 0xe4, 0x81, 0xd6, 0x3f,
    0xe2, 0x9a, 0xd7, 0x3f, 0x94, 0xd8, 0xda, 0x3f, 0x2e, 0x4c,
    0xdc, 0x3f, 0x47, 0x3a, 0xde, 0x3f, 0x60, 0x28, 0xe0, 0x3f,
    0x78, 0xfb, 0xe1, 0x3f, 0xf1, 0xf9, 0xe4, 0x3f, 0xaa, 0xf2,
    0xe5, 0x3f, 0xc3, 0xe0, 0xe7, 0x3f, 0xdc, 0xce, 0xe9, 0x3f,
    0xf4, 0xbc, 0xeb, 0x3f, 0x0d, 0xab, 0xed, 0x3f, 0x26, 0x99,
    0xef, 0x3f, 0x3f, 0x87, 0xf1, 0x3f, 0x58, 0x75, 0xf3, 0x3f,
    0x86, 0x3f, 0xf5, 0x3f, 0x89, 0x51, 0xf7, 0x3f, 0xa2, 0x3f,
    0xf9, 0x3f, 0xcc, 0xdc, 0xfa, 0x3f, 0x88, 0x8b, 0x7c, 0x75,
    0x74, 0x6a, 0x7a, 0x6a, 0x77, 0x89, 0x71, 0x86, 0x6a, 0x7a,
    0x76, 0x73, 0x76, 0x54, 0x6c, 0x8f, 0x80, 0x77, 0x7f, 0x80,
    0x70, 0x89, 0x8e, 0x6a, 0x7a, 0x71, 0x6e, 0x79, 0x85, 0x6d,
    0x7f, 0x8f, 0x78, 0x7e, 0x80, 0x86, 0x97, 0x89, 0x86, 0x7e,
    0x74, 0x77, 0x79, 0x83, 0x84, 0x86, 0x81, 0x86, 0x80, 0x7b,
    0x8a, 0x70, 0x7e, 0x4c, 0x75, 0x7c, 0x3f, 0x80, 0x75, 0x71,
    0x88, 0x80, 0x7e, 0x85, 0x85, 0x75, 0x75, 0x84, 0x88, 0x81,
    0x8a, 0x83, 0x7f, 0x73, 0x83, 0x74, 0x74, 0x7e, 0x6e, 0x8e,
    0x6f, 0x88, 0x76, 0x76, 0x7d, 0x63, 0x73, 0x88, 0x7f, 0x8d,
    0x78, 0x86, 0x7a, 0x83, 0x94, 0x6b, 0x76, 0x7e, 0x73, 0x73,
    0x82, 0x71, 0x7a, 0x90, 0x58, 0x74, 0x7a, 0x83, 0x8d, 0x8d,
    0x85, 0x75, 0x7d, 0x79, 0x7b, 0x83, 0x83, 0x89, 0x88, 0x7f,
    0x8c, 0x78, 0x87, 0x79, 0x7f, 0x49, 0x84, 0x7b, 0x58, 0x79,
    0x82, 0x6e, 0x81, 0x86, 0x7b, 0x8e, 0x87, 0x7b, 0x7d, 0x7e,
    0x84, 0x87, 0x84, 0x81, 0x7a, 0x6b, 0x7c, 0x7d, 0x7a, 0x88,
    0x6b, 0x7e, 0x78, 0x7d, 0x73, 0x73, 0x80, 0x6a, 0x72, 0x8c,
    0x7e, 0x83, 0x85, 0x8e, 0x77, 0x83, 0x91, 0x6b, 0x73, 0x79,
    0x70, 0x79, 0x7d, 0x75, 0x7e, 0x90, 0x65, 0x77, 0x76, 0x92,
    0x8b, 0x90, 0x85, 0x84, 0x71, 0x76, 0x7b, 0x82, 0x7f, 0x7f,
    0x80, 0x7d, 0x78, 0x71, 0x89, 0x75, 0x77, 0x42, 0x7d, 0x80,
    0x51, 0x6e, 0x83, 0x74, 0x84, 0x87, 0x77, 0x87, 0x8d, 0x83,
    0x7f, 0x80, 0x64, 0x6c, 0x8f, 0x81, 0x8a, 0x7f, 0x7e, 0x80,
    0x91, 0xb1, 0x78, 0x8e, 0xa8, 0x8e, 0x6a, 0x7a, 0x8d, 0xab,
    0x77, 0x69, 0x73, 0x8b, 0x7b, 0x7b, 0x79, 0x76, 0x80, 0x7d,
    0x84, 0x81, 0x81, 0x84, 0x8f, 0x9b, 0x74, 0x88, 0x84, 0x82,
    0x71, 0x7c, 0x82, 0x8e, 0x7c, 0x67, 0x63, 0x82, 0x81, 0x8d,
    0x6c, 0x69, 0x8a, 0x89, 0x8e, 0x7b, 0x76, 0x7f, 0x7e, 0x90,
    0x79, 0x9b, 0x9f, 0xa1, 0x7b, 0x9b, 0x83, 0x6e, 0x66, 0x73,
    0x6c, 0xa2, 0x66, 0x81, 0x67, 0x7c, 0x83, 0x78, 0x83, 0x84,
    0x77, 0x70, 0x85, 0x9b, 0x81, 0x98, 0xa1, 0x8a, 0x76, 0x84,
    0x81, 0x94, 0x7a, 0x7a, 0x7c, 0x7f, 0x7e, 0x71, 0x83, 0x67,
    0x82, 0x7f, 0x7e, 0x89, 0x7d, 0x7b, 0x95, 0x89, 0x80, 0x85,
    0xa1, 0x7c, 0x7a, 0x80, 0x99, 0x8d, 0x71, 0x77, 0x72, 0x83,
    0x7c, 0x95, 0x74, 0x77, 0x84, 0x83, 0x90, 0x92, 0x87, 0x74,
    0x83, 0x9f, 0x7b, 0x92, 0x9a, 0x8e, 0x70, 0x8e, 0x7c, 0x77,
    0x6f, 0x6f, 0x6e, 0x95, 0x64, 0x72, 0x68, 0x70, 0x8e, 0x77,
    0x8d, 0x97, 0x6c, 0x65, 0x7b, 0x8b, 0x84, 0x91, 0xa7, 0x84,
    0x75, 0x7c, 0x80, 0x8a, 0x7d, 0x69, 0x69, 0x8d, 0x70, 0x6c,
    0x85, 0x6a, 0x8d, 0x86, 0x7e, 0x97, 0x7f, 0x7f, 0x81, 0x97,
    0x83, 0x92, 0x90, 0x84, 0x71, 0x7c, 0x81, 0x85, 0x83, 0x71,
    0x6b, 0x87, 0x7c, 0x88, 0x63, 0x68, 0x85, 0x9c, 0x9f, 0x89,
    0x79, 0x7a, 0x71, 0x93, 0x81, 0x9d, 0x93, 0x93, 0x7e, 0x94,
    0x76, 0x79, 0x70, 0x5a, 0x66, 0x89, 0x5e, 0x64, 0x7a, 0x70,
    0x72, 0x83, 0x87, 0x88, 0x83, 0x97, 0x84, 0x6c, 0x8d, 0x6c,
    0x83, 0x84, 0x8b, 0x75, 0x6f, 0x8b, 0x8a, 0x79, 0x88, 0x83,
    0x82, 0x61, 0x85, 0x76, 0x64, 0x8a, 0x88, 0x8c, 0x8d, 0x8d,
    0x77, 0x89, 0x7c, 0x65, 0x85, 0x7d, 0x7a, 0x68, 0x5e, 0x6b,
    0x81, 0x82, 0x8a, 0x83, 0x7f, 0x6a, 0x7c, 0x76, 0x77, 0x74,
    0x69, 0x7e, 0x7c, 0x84, 0x7d, 0x9d, 0x83, 0x71, 0xa5, 0x67,
    0x7e, 0x83, 0x78, 0x85, 0x91, 0x7c, 0x77, 0x6d, 0x8d, 0x77,
    0x7a, 0x6e, 0x6b, 0x80, 0x84, 0x8b, 0x83, 0x88, 0x81, 0x72,
    0x87, 0x60, 0x86, 0x76, 0x86, 0x76, 0x6b, 0x8b, 0x8c, 0x7a,
    0x7f, 0x7a, 0x81, 0x6f, 0x82, 0x7e, 0x66, 0x8c, 0x89, 0x83,
    0x85, 0x8e, 0x85, 0x8b, 0x7c, 0x61, 0x98, 0x82, 0x86, 0x73,
    0x59, 0x66, 0x7c, 0x81, 0x83, 0x8c, 0x7e, 0x6b, 0x7a, 0x83,
    0x70, 0x77, 0x71, 0x78, 0x76, 0x86, 0x79, 0xa0, 0x78, 0x71,
    0x93, 0x78, 0x87, 0x74, 0x71, 0x84, 0x88, 0x78, 0x7e, 0x75,
    0x8d, 0x7f, 0x77, 0x7a, 0x6f, 0x83, 0x84, 0x89, 0x7f, 0x8d,
    0x79, 0x75, 0x91, 0x6c, 0x7c, 0x6e, 0x88, 0x7b, 0x72, 0x7f,
    0x8a, 0x7a, 0x84, 0x7e, 0x85, 0x6a, 0x7d, 0x75, 0x65, 0x90,
    0x8a, 0x81, 0x8a, 0x83, 0x86, 0x84, 0x7b, 0x5c, 0x8e, 0x7e,
    0x82, 0x72, 0x66, 0x5f, 0x76, 0x84, 0x87, 0x82, 0x83, 0x76,
    0x7a, 0x77, 0x7e, 0x6d, 0x69, 0x81, 0x76, 0x89, 0x81, 0x9d,
    0x79, 0x76, 0x9a, 0x7a, 0x7a, 0x81, 0x77, 0x79, 0x90, 0x82,
    0x7e, 0x76, 0x8d, 0x8b, 0x89, 0x71, 0x6c, 0x97, 0x9b, 0x95,
    0xad, 0x9b, 0xb7, 0x87, 0x96, 0x54, 0x6f, 0x87, 0x7f, 0x72,
    0x57, 0x88, 0x8b, 0x74, 0x83, 0x8d, 0x7b, 0x63, 0x8f, 0x6c,
    0x56, 0x9c, 0x92, 0xa3, 0xa7, 0xb2, 0xbf, 0x81, 0x9b, 0x48,
    0x73, 0x88, 0x6c, 0x64, 0x69, 0x64, 0x83, 0x72, 0x7a, 0x95,
    0x94, 0x64, 0x69, 0x6c, 0xb4, 0x6a, 0x5c, 0x74, 0x8d, 0x68,
    0x72, 0xe1, 0x67, 0x99, 0xba, 0x65, 0x66, 0xa0, 0x98, 0xaf,
    0x74, 0x67, 0x5f, 0x72, 0x6f, 0x82, 0x86, 0x70, 0x5c, 0x96,
    0x95, 0x98, 0x91, 0x88, 0xb0, 0x97, 0x92, 0x65, 0x92, 0x79,
    0x73, 0x60, 0x6d, 0x98, 0x84, 0x74, 0x70, 0x8c, 0x98, 0x4f,
    0x83, 0x6d, 0x5f, 0x87, 0x85, 0x9a, 0xa3, 0x8c, 0xac, 0x8f,
    0x96, 0x55, 0x82, 0x8b, 0x8c, 0x5b, 0x5d, 0x6e, 0x96, 0x8d,
    0x58, 0x98, 0x8d, 0x62, 0x6b, 0x7c, 0xa4, 0x72, 0x66, 0x82,
    0x87, 0x71, 0x68, 0xdf, 0x6a, 0x95, 0xd0, 0x75, 0x73, 0xab,
    0x92, 0x97, 0x75, 0x6f, 0x70, 0x6f, 0x6c, 0x81, 0x83, 0x71,
    0x5a, 0x95, 0x97, 0xaa, 0x94, 0x90, 0xb8, 0x6c, 0x9a, 0x63,
    0x90, 0x79, 0x83, 0x65, 0x6c, 0x87, 0x80, 0x6d, 0x66, 0x8a,
    0x89, 0x66, 0x87, 0x6e, 0x50, 0xa2, 0xa5, 0xa9, 0x94, 0x8c,
    0xc1, 0x81, 0xa9, 0x68, 0x9b, 0x82, 0x87, 0x73, 0x62, 0x5b,
    0xa0, 0x7a, 0x76, 0x84, 0x8f, 0x61, 0x6a, 0x6a, 0xa7, 0x79,
    0x66, 0x82, 0x9d, 0x71, 0x6c, 0xcb, 0x7d, 0x96, 0xed, 0x6f,
    0x68, 0x96, 0xa5, 0x90, 0x92, 0x76, 0x82, 0x67, 0x70, 0x84,
    0x79, 0x88, 0x87, 0x7a, 0x75, 0x85, 0x7c, 0x7b, 0x71, 0x73,
    0x81, 0x7b, 0x99, 0x7e, 0x7d, 0x90, 0x95, 0x9c, 0x85, 0x71,
    0x81, 0x76, 0x84, 0x7e, 0x89, 0x90, 0x83, 0x83, 0x7b, 0x83,
    0x81, 0x71, 0x6f, 0x96, 0x70, 0x78, 0x88, 0x77, 0x81, 0x7d,
    0x74, 0x77, 0x78, 0x7a, 0x86, 0x79, 0x72, 0x7e, 0x77, 0x91,
    0x81, 0x6e, 0x6f, 0x75, 0x75, 0x7d, 0x7e, 0xa4, 0x78, 0x7b,
    0xad, 0x6f, 0x86, 0x82, 0x76, 0x8e, 0x88, 0x7a, 0x79, 0x72,
    0x8b, 0x7a, 0x72, 0x8d, 0x81, 0x6f, 0x7e, 0x86, 0x77, 0x7b,
    0x70, 0x8b, 0x7d, 0x7a, 0x8e, 0x77, 0x7a, 0x90, 0x8a, 0xa4,
    0x7e, 0x74, 0x7d, 0x6f, 0x82, 0x87, 0x7d, 0x84, 0x87, 0x83,
    0x7d, 0x7a, 0x7f, 0x7c, 0x6a, 0x9b, 0x72, 0x7c, 0x9d, 0x7d,
    0x7e, 0x80, 0x78, 0x74, 0x78, 0x80, 0x7c, 0x71, 0x71, 0x86,
    0x79, 0x8c, 0x7a, 0x75, 0x6a, 0x78, 0x71, 0x84, 0x73, 0xa4,
    0x73, 0x74, 0x90, 0x76, 0x80, 0x78, 0x74, 0x8e, 0x88, 0x7d,
    0x77, 0x6c, 0x87, 0x81, 0x6d, 0x8c, 0x88, 0x7c, 0x7a, 0x87,
    0x78, 0x7b, 0x71, 0x85, 0x89, 0x86, 0x8f, 0x6a, 0x7d, 0x8a,
    0x7f, 0x96, 0x83, 0x7a, 0x84, 0x6c, 0x79, 0x89, 0x7e, 0x90,
    0x78, 0x83, 0x7a, 0x80, 0x84, 0x78, 0x70, 0x9a, 0x6b, 0x6e,
    0x9b, 0x7e, 0x7e, 0x7d, 0x7f, 0x76, 0x6b, 0x78, 0x91, 0x74,
    0x78, 0x82, 0x7b, 0x92, 0x7f, 0x6b, 0x6f, 0x79, 0x6b, 0x88,
    0x75, 0xa6, 0x7b, 0x78, 0xa4, 0x7a, 0x81, 0x81, 0x7b, 0x84,
    0x8a, 0x82, 0x74, 0x76, 0x8a, 0x8c, 0x6d, 0x8d, 0xac, 0x65,
    0x70, 0x7a, 0x63, 0x6a, 0x70, 0x8e, 0x79, 0x8e, 0xae, 0x7b,
    0x79, 0x95, 0xa5, 0xb6, 0x7f, 0x7a, 0x77, 0x6e, 0x78, 0x98,
    0x7f, 0x81, 0x8e, 0x7b, 0x6a, 0x7a, 0x75, 0x5c, 0x69, 0xa3,
    0x6b, 0x8f, 0x8a, 0x77, 0x82, 0x85, 0x8c, 0x7e, 0x70, 0x79,
    0x80, 0x71, 0x71, 0x96, 0x81, 0x83, 0x7c, 0x7a, 0x8a, 0x80,
    0x73, 0x7e, 0x7b, 0x98, 0x7b, 0x7b, 0x96, 0x8e, 0x78, 0x86,
    0x7a, 0x79, 0x75, 0x8f, 0x72, 0x8d, 0x72, 0x82, 0x6b, 0x80,
    0x99, 0x61, 0x6c, 0x86, 0x6f, 0x71, 0x66, 0x92, 0x74, 0x9b,
    0x92, 0x77, 0x7e, 0x9e, 0x99, 0xb2, 0x74, 0x80, 0x83, 0x6b,
    0x77, 0x9b, 0x80, 0x88, 0x8d, 0x71, 0x71, 0x6f, 0x77, 0x6c,
    0x5f, 0xa1, 0x71, 0x8c, 0xa0, 0x81, 0x80, 0x94, 0x94, 0x7e,
    0x75, 0x7a, 0x81, 0x6d, 0x75, 0x95, 0x7f, 0x81, 0x75, 0x74,
    0x85, 0x80, 0x73, 0x7c, 0x7b, 0x99, 0x72, 0x89, 0x9b, 0x81,
    0x79, 0x7d, 0x76, 0x75, 0x74, 0x87, 0x78, 0x82, 0x6b, 0x7f,
    0x72, 0x7d, 0xa2, 0x6e, 0x6a, 0x84, 0x71, 0x77, 0x69, 0x91,
    0x77, 0x9e, 0x9c, 0x77, 0x78, 0x9b, 0x90, 0xa0, 0x79, 0x79,
    0x78, 0x71, 0x72, 0x95, 0x76, 0x93, 0x8f, 0x6f, 0x68, 0x74,
    0x80, 0x70, 0x6b, 0x97, 0x6a, 0x93, 0x9a, 0x84, 0x79, 0x86,
    0x91, 0x8a, 0x6d, 0x76, 0x7f, 0x71, 0x6d, 0x8e, 0x7b, 0x92,
    0x81, 0x76, 0x89, 0x79, 0x68, 0x77, 0x80, 0x9f, 0x7a, 0x87,
    0xa0, 0x90, 0x84, 0x87, 0x7c, 0x70, 0x70, 0x7f, 0x71, 0x88,
    0x6a, 0x80, 0x66, 0x83, 0x8f, 0x6f, 0x7f, 0x7e, 0x71, 0x7a,
    0x82, 0xad, 0x7c, 0x97, 0xb3, 0x91, 0x77, 0x76, 0x98, 0xac,
    0x7a, 0x62, 0x69, 0x83, 0x78, 0x84, 0x6e, 0x75, 0x87, 0x83,
    0x72, 0x7f, 0x84, 0x83, 0x7d, 0xa0, 0x7c, 0x8e, 0x7f, 0x80,
    0x6e, 0x7b, 0x95, 0x9d, 0x74, 0x6f, 0x67, 0x85, 0x7d, 0x8e,
    0x6d, 0x7b, 0x88, 0x86, 0x89, 0x7a, 0x77, 0x80, 0x78, 0x97,
    0x76, 0xa2, 0xaa, 0xa0, 0x68, 0x9f, 0x85, 0x86, 0x5b, 0x6b,
    0x61, 0xa1, 0x68, 0x81, 0x6d, 0x83, 0x8d, 0x81, 0x7d, 0x88,
    0x6f, 0x6d, 0x77, 0xaa, 0x76, 0xa0, 0xa9, 0x8d, 0x73, 0x94,
    0x9a, 0xab, 0x71, 0x63, 0x72, 0x80, 0x79, 0x79, 0x7b, 0x83,
    0x86, 0x7e, 0x7c, 0x89, 0x77, 0x7e, 0x8d, 0x95, 0x7f, 0x8f,
    0xa7, 0x7f, 0x70, 0x85, 0x9d, 0x8e, 0x76, 0x71, 0x66, 0x73,
    0x7a, 0x95, 0x68, 0x72, 0x8e, 0x85, 0x84, 0x8c, 0x81, 0x75,
    0x77, 0xac, 0x78, 0x9c, 0x9d, 0x88, 0x66, 0x96, 0x7f, 0x82,
    0x73, 0x69, 0x62, 0x93, 0x62, 0x88, 0x67, 0x85, 0x91, 0x79,
    0x7f, 0x84, 0x77, 0x6a, 0x83, 0x91, 0x79, 0x8d, 0xaf, 0x80,
    0x77, 0x85, 0x9d, 0x9a, 0x78, 0x60, 0x63, 0x8b, 0x69, 0x81,
    0x7a, 0x7a, 0x90, 0x77, 0x7c, 0x8d, 0x7a, 0x7d, 0x7f, 0x9c,
    0x80, 0x95, 0xa4, 0x84, 0x7a, 0x82, 0x8c, 0x95, 0x82, 0x68,
    0x67, 0x7c, 0x72, 0x89, 0x64, 0x6e, 0x91, 0x8f, 0x96, 0x84,
    0x7d, 0x74, 0x7c, 0xa0, 0x7c, 0xac, 0xa4, 0x99, 0x70, 0x90,
    0x8c, 0x79, 0x6f, 0x5b, 0x62, 0x7a, 0x64, 0x77, 0x63, 0x8c,
    0x64, 0x7e, 0x82, 0x97, 0x6b, 0x70, 0x71, 0x7c, 0x9a, 0x87,
    0x89, 0x93, 0x63, 0x98, 0x8b, 0x63, 0x71, 0x67, 0x71, 0x7e,
    0x70, 0x96, 0x5d, 0x86, 0x7f, 0x79, 0x81, 0x94, 0x72, 0x63,
    0x72, 0x83, 0x8c, 0x86, 0x86, 0x8c, 0x75, 0x98, 0x83, 0x74,
    0x7e, 0x66, 0x69, 0x79, 0x69, 0x9a, 0x24, 0x85, 0x52, 0x31,
    0x59, 0x7a, 0x45, 0x5c, 0x7d, 0x43, 0x3e, 0x5a, 0x51, 0x99,
    0x33, 0xa0, 0x8d, 0x60, 0x3b, 0x36, 0x16, 0x7a, 0x54, 0x9c,
    0x57, 0x83, 0x7d, 0x74, 0x86, 0x92, 0x6c, 0x7f, 0x79, 0x7c,
    0x89, 0x73, 0x80, 0x84, 0x8a, 0x98, 0x7a, 0x51, 0x78, 0x60,
    0x76, 0x83, 0x80, 0x95, 0x6c, 0x80, 0x65, 0x79, 0x7d, 0x92,
    0x6b, 0x73, 0x80, 0x7a, 0x90, 0x88, 0x80, 0x90, 0x78, 0x96,
    0x4f, 0x7d, 0x64, 0x62, 0x71, 0x80, 0x76, 0x88, 0x31, 0x81,
    0x48, 0x2e, 0x40, 0x6b, 0x56, 0x6d, 0x7e, 0x48, 0x44, 0x52,
    0x49, 0xa3, 0x1b, 0x98, 0x80, 0x65, 0x36, 0x26, 0x1c, 0x81,
    0x41, 0x9d, 0x51, 0x8a, 0x81, 0x7c, 0x89, 0x90, 0x7e, 0x80,
    0x67, 0x81, 0x8a, 0x7e, 0x83, 0x87, 0x70, 0x92, 0x6a, 0x62,
    0x7b, 0x60, 0x63, 0x8f, 0x7d, 0x8a, 0x63, 0x7a, 0x79, 0x6e,
    0x8c, 0x87, 0x77, 0x86, 0x84, 0x74, 0x89, 0x70, 0x7e, 0x8a,
    0x6c, 0xa1, 0x74, 0x79, 0x69, 0x5e, 0x5c, 0x7f, 0x74, 0x83,
    0x3e, 0x84, 0x51, 0x2b, 0x36, 0x60, 0x4e, 0x6f, 0x82, 0x4d,
    0x3e, 0x3d, 0x46, 0x9d, 0x20, 0x98, 0x6d, 0x73, 0x37, 0x24,
    0x06, 0x7a, 0x2b, 0xa4, 0x66, 0x6a, 0x85, 0x7d, 0x89, 0x88,
    0x79, 0x93, 0x88, 0x85, 0x84, 0x7e, 0x8d, 0x85, 0x7a, 0x7f,
    0x84, 0x9e, 0x84, 0x71, 0x80, 0x7f, 0x7f, 0x76, 0x7b, 0x6a,
    0x70, 0x94, 0x86, 0x88, 0x84, 0x89, 0x82, 0x7f, 0x82, 0x6a,
    0x7f, 0x7f, 0x7b, 0x72, 0x73, 0x80, 0x76, 0x7d, 0x87, 0x92,
    0x80, 0x7e, 0x74, 0x6c, 0x7a, 0x81, 0x81, 0x7f, 0x74, 0x8f,
    0x73, 0xa2, 0x85, 0x80, 0xb9, 0x89, 0x7d, 0x92, 0x73, 0x66,
    0x7b, 0x76, 0x73, 0x92, 0x84, 0x75, 0x6a, 0x6c, 0x7b, 0x86,
    0x82, 0x88, 0x80, 0x7d, 0x7d, 0x81, 0x83, 0x72, 0x83, 0x78,
    0x7b, 0x85, 0x7d, 0x96, 0x85, 0x78, 0x80, 0x86, 0x83, 0x74,
    0x82, 0x6e, 0x6e, 0x8e, 0x85, 0x84, 0x8b, 0x8a, 0x81, 0x8c,
    0x80, 0x71, 0x95, 0x84, 0x81, 0x7e, 0x6f, 0x76, 0x78, 0x79,
    0x78, 0x82, 0x7c, 0x7e, 0x76, 0x67, 0x81, 0x83, 0x81, 0x87,
    0x81, 0x8a, 0x7b, 0xab, 0x79, 0x81, 0x9c, 0x85, 0x74, 0x88,
    0x77, 0x6f, 0x7f, 0x6a, 0x76, 0x89, 0x7c, 0x74, 0x6c, 0x6d,
    0x7b, 0x7c, 0x88, 0x8c, 0x75, 0x79, 0x7f, 0x80, 0x83, 0x79,
    0x95, 0x78, 0x79, 0x84, 0x76, 0x89, 0x89, 0x69, 0x75, 0x7c,
    0x81, 0x6e, 0x83, 0x70, 0x72, 0x8e, 0x8b, 0x83, 0x7f, 0x87,
    0x83, 0x7d, 0x80, 0x6c, 0x98, 0x83, 0x7e, 0x73, 0x6b, 0x70,
    0x83, 0x76, 0x82, 0x81, 0x83, 0x78, 0x74, 0x6a, 0x82, 0x87,
    0x88, 0x85, 0x76, 0x83, 0x7d, 0xa4, 0x7e, 0x83, 0xac, 0x8c,
    0x86, 0x90, 0x6e, 0x63, 0x88, 0x64, 0x6d, 0x8b, 0x74, 0x78,
    0xb3, 0x71, 0x98, 0x74, 0x78, 0x5e, 0x94, 0x85, 0x81, 0x99,
    0x6c, 0x6f, 0x89, 0x66, 0x98, 0x58, 0x69, 0xab, 0x80, 0xa1,
    0x8f, 0x71, 0x9a, 0x70, 0xa0, 0x76, 0x75, 0x71, 0x68, 0x5f,
    0x95, 0x86, 0x85, 0x92, 0x65, 0x78, 0x93, 0x6a, 0x97, 0x5e,
    0x75, 0x91, 0x7e, 0x99, 0xa7, 0x79, 0x93, 0x6b, 0xd4, 0x71,
    0xb0, 0xcf, 0x9f, 0x81, 0xa8, 0xa0, 0x7c, 0xe2, 0xd4, 0xab,
    0xdc, 0x55, 0xc7, 0x5a, 0x7a, 0xb2, 0xd5, 0xd0, 0xfc, 0x81,
    0xd4, 0x6c, 0xab, 0x7f, 0x82, 0x80, 0x71, 0x5f, 0x98, 0x73,
    0x7e, 0x90, 0x6a, 0x82, 0x9e, 0x6e, 0x87, 0x69, 0x8c, 0xb2,
    0x8c, 0x92, 0x87, 0x66, 0x92, 0x67, 0xac, 0x7a, 0x9b, 0x87,
    0x7c, 0x4d, 0x8f, 0x83, 0x75, 0xa0, 0x6c, 0x6e, 0xa9, 0x67,
    0x8c, 0x5b, 0xa3, 0x80, 0x94, 0xab, 0x97, 0x73, 0x8c, 0x7c,
    0xd2, 0x70, 0xb6, 0xc9, 0xbc, 0x85, 0xab, 0x98, 0x85, 0xe7,
    0xdc, 0xa5, 0xe3, 0x48, 0xea, 0x5c, 0x87, 0xaa, 0xcf, 0xe3,
    0xf2, 0x84, 0xcf, 0x5d, 0xb2, 0x6f, 0x70, 0x82, 0x77, 0x6f,
    0x92, 0x6f, 0x8e, 0x90, 0x71, 0x81, 0xa0, 0x6e, 0x91, 0x61,
    0x99, 0xa7, 0x99, 0xa9, 0x9a, 0x67, 0x8f, 0x74, 0xab, 0x73,
    0x84, 0x8e, 0x76, 0x6b, 0x7a, 0x73, 0x70, 0xa2, 0x83, 0x8f,
    0xa6, 0x5d, 0x85, 0x5d, 0x91, 0x84, 0x8a, 0xa2, 0xbd, 0x7b,
    0x84, 0x70, 0xce, 0x76, 0xbc, 0xd9, 0xd3, 0xa0, 0xa0, 0x91,
    0x81, 0xdd, 0xf3, 0xba, 0xdc, 0x4b, 0xff, 0x5a, 0x92, 0xa2,
    0xee, 0xdf, 0xff, 0x77, 0xe8, 0x5b, 0x66, 0x8a, 0x9f, 0x73,
    0x78, 0x76, 0x64, 0x67, 0x71, 0xbe, 0x71, 0x9b, 0xc0, 0x88,
    0x77, 0x7e, 0xa6, 0xb8, 0x7c, 0x71, 0x78, 0x72, 0x75, 0x8b,
    0x75, 0x8d, 0x90, 0x79, 0x72, 0x7c, 0x78, 0x6e, 0x78, 0xa7,
    0x6e, 0x9c, 0x8d, 0x78, 0x80, 0x82, 0x9d, 0xa0, 0x72, 0x75,
    0x70, 0x73, 0x78, 0x95, 0x7f, 0x85, 0x7b, 0x8f, 0x96, 0x7b,
    0x70, 0x88, 0x74, 0xa0, 0x81, 0x80, 0xa1, 0x91, 0x73, 0x92,
    0x78, 0x6d, 0x67, 0x86, 0x77, 0xa7, 0x70, 0x7a, 0x6c, 0x83,
    0xa0, 0x71, 0x78, 0x82, 0x6e, 0x69, 0x70, 0xb8, 0x6a, 0xab,
    0xa0, 0x81, 0x74, 0x8d, 0x9c, 0xaf, 0x75, 0x78, 0x7d, 0x76,
    0x70, 0x8e, 0x7d, 0x7c, 0x99, 0x77, 0x6f, 0x81, 0x72, 0x6f,
    0x6e, 0xa3, 0x74, 0x8c, 0xa7, 0x72, 0x76, 0x85, 0xa6, 0x9a,
    0x75, 0x74, 0x79, 0x68, 0x73, 0x9b, 0x80, 0x8a, 0x7f, 0x84,
    0x8d, 0x82, 0x84, 0x87, 0x81, 0xad, 0x7c, 0x8e, 0x95, 0x8a,
    0x6b, 0x83, 0x70, 0x78, 0x73, 0x80, 0x79, 0x8f, 0x72, 0x75,
    0x71, 0x7a, 0xa4, 0x6f, 0x73, 0x7c, 0x6c, 0x64, 0x6f, 0xa3,
    0x73, 0xa0, 0xab, 0x80, 0x7a, 0x87, 0x98, 0xa1, 0x76, 0x77,
    0x6f, 0x83, 0x6c, 0x93, 0x7c, 0x89, 0x9f, 0x78, 0x6d, 0x7c,
    0x7a, 0x74, 0x75, 0xad, 0x73, 0x9c, 0xaa, 0x7d, 0x74, 0x77,
    0x95, 0xa2, 0x6e, 0x79, 0x72, 0x77, 0x6c, 0x92, 0x7a, 0x83,
    0x81, 0x95, 0x98, 0x77, 0x6e, 0x77, 0x7d, 0xa8, 0x82, 0x92,
    0xb2, 0x97, 0x82, 0x7d, 0x6d, 0x6f, 0x74, 0x77, 0x6a, 0x87,
    0x67, 0x76, 0x41, 0x87, 0x6f, 0x80, 0x75, 0x8f, 0x58, 0x7b,
    0x61, 0x72, 0x91, 0x7f, 0x73, 0x93, 0x5a, 0xa0, 0x87, 0x57,
    0x63, 0x5d, 0x5f, 0x7c, 0x66, 0x8f, 0x4a, 0x82, 0x83, 0x7e,
    0x74, 0x8d, 0x4c, 0x60, 0x62, 0x82, 0x84, 0x9b, 0x79, 0x85,
    0x63, 0xb0, 0x85, 0x72, 0x86, 0x5d, 0x54, 0x7f, 0x5a, 0x88,
    0x27, 0x83, 0x4a, 0x2b, 0x77, 0x78, 0x3f, 0x53, 0x75, 0x17,
    0x36, 0x60, 0x34, 0xb1, 0x43, 0xa3, 0x89, 0x50, 0x2e, 0x24,
    0x13, 0x7d, 0x3b, 0x99, 0x49, 0x87, 0x76, 0x6c, 0x7c, 0x8a,
    0x5a, 0x7d, 0x72, 0x72, 0x79, 0x88, 0x71, 0x8c, 0x72, 0x9c,
    0x7f, 0x51, 0x6b, 0x56, 0x6f, 0x83, 0x66, 0x8f, 0x55, 0x83,
    0x79, 0x72, 0x81, 0x9d, 0x68, 0x7b, 0x7a, 0x67, 0x89, 0x82,
    0x6a, 0x98, 0x68, 0xad, 0x65, 0x78, 0x61, 0x40, 0x6c, 0x7c,
    0x69, 0x81, 0x27, 0x80, 0x53, 0x28, 0x50, 0x63, 0x3c, 0x5f,
    0x81, 0x13, 0x20, 0x70, 0x1e, 0xaa, 0x17, 0x97, 0x82, 0x64,
    0x33, 0x1b, 0x19, 0x79, 0x2f, 0x9d, 0x44, 0x90, 0x90, 0x78,
    0x79, 0x76, 0x74, 0x77, 0x57, 0x83, 0x7a, 0x83, 0x6f, 0x99,
    0x72, 0x97, 0x6d, 0x68, 0x61, 0x44, 0x6c, 0x96, 0x65, 0x83,
    0x4d, 0x91, 0x84, 0x60, 0x84, 0x96, 0x5d, 0x89, 0x76, 0x61,
    0x80, 0x6f, 0x6c, 0x88, 0x72, 0x9e, 0x76, 0x85, 0x57, 0x58,
    0x58, 0x7c, 0x67, 0x84, 0x2b, 0x80, 0x49, 0x26, 0x31, 0x5c,
    0x48, 0x60, 0x7e, 0x20, 0x15, 0x52, 0x16, 0xb1, 0x0c, 0xa5,
    0x77, 0x71, 0x0a, 0x1e, 0x00, 0x85, 0x1c, 0xa1, 0x80, 0xfd,
    0xba, 0x3d, 0xc9, 0x32, 0xe2, 0xbd, 0x6b, 0x21, 0x94, 0xbd,
    0xa7, 0x0e, 0x8f, 0xbd, 0x4e, 0x9f, 0x55, 0x3e, 0x15, 0x1e,
    0x18, 0x3e, 0x71, 0x85, 0x60, 0x3d, 0xe5, 0x43, 0xd1, 0x3d,
    0x69, 0xc3, 0x0b, 0xbe, 0x1f, 0xe1, 0x37, 0xbe, 0xa5, 0x40,
    0xc7, 0x3d, 0xe9, 0xdf, 0x3c, 0x3e, 0xba, 0x2f, 0x88, 0x3e,
    0x71, 0x08, 0xf2, 0xbe, 0x5c, 0xc2, 0x9e, 0x3f, 0xcf, 0x00,
    0xc0, 0x3e, 0x20, 0x42, 0xa3, 0x3e, 0x21, 0xce, 0x66, 0xbf,
    0x79, 0x4d, 0x4c, 0xbf, 0xd3, 0x84, 0xab, 0xbd, 0xa7, 0x4e,
    0xd3, 0xbe, 0x5f, 0x9e, 0x00, 0x3f, 0x14, 0xc5, 0xc4, 0xbf,
    0x48, 0xaa, 0xaa, 0x3d, 0x85, 0xcc, 0xcf, 0x3e, 0x92, 0xb7,
    0xde, 0xbe, 0x58, 0xc1, 0x8c, 0xbf, 0x29, 0x8f, 0x89, 0xbf,
    0x57, 0x57, 0xe5, 0x3e, 0x3e, 0xb8, 0x5a, 0x3f, 0xdf, 0x8e,
    0x1e, 0xbf, 0x4e, 0x6c, 0xcd, 0xbc, 0x79, 0xbc, 0x06, 0xbf,
    0x57, 0x1d, 0xe4, 0x3e, 0x70, 0x69, 0xbe, 0x3d, 0x09, 0x38,
    0x0b, 0x3e, 0xd7, 0x84, 0x9e, 0xbf, 0xac, 0xd1, 0x1f, 0x3f,
    0x8a, 0x02, 0x7a, 0x3f, 0xca, 0x9e, 0xe6, 0x3e, 0xe6, 0x4f,
    0xe1, 0x3e, 0xed, 0x08, 0x37, 0x3e, 0x3d, 0x26, 0x1d, 0x3f,
    0x18, 0xfa, 0xdd, 0xbd, 0x4f, 0x3c, 0x62, 0x3f, 0xac, 0xde,
    0x03, 0x3f, 0x35, 0x0b, 0x23, 0x3f, 0x51, 0xaf, 0x90, 0x3d,
    0xfc, 0x1d, 0xc1, 0x3e, 0x82, 0x4f, 0xbf, 0xbe, 0xaa, 0xf7,
    0xd1, 0xbf, 0x9d, 0xde, 0x93, 0xbf, 0x19, 0xdd, 0x10, 0x3f,
    0x4c, 0x36, 0x9d, 0x3f, 0xc0, 0xe6, 0x89, 0x3d, 0x61, 0x0b,
    0x6e, 0x40, 0x6a, 0x46, 0x20, 0xbf, 0x44, 0x21, 0x1d, 0xc0,
    0xe6, 0x08, 0x89, 0x3e, 0x9d, 0xf2, 0x20, 0x40, 0x5e, 0x26,
    0x23, 0xbe, 0x81, 0xd1, 0x16, 0x3f, 0xe3, 0x94, 0x12, 0xbf,
    0xaf, 0x89, 0xd9, 0x3e, 0x04, 0xe3, 0x98, 0xbf, 0x9e, 0x74,
    0x26, 0xbf, 0xc1, 0x15, 0x0c, 0x3f, 0x51, 0xb6, 0xcb, 0xbd,
    0x7f, 0x5b, 0x4b, 0x3f, 0xf5, 0xc5, 0x02, 0x3f, 0x5c,
    0xbc, 0x0d, 0x3f, 0xe9, 0x62, 0x8c, 0x3d, 0xeb, 0xca,
    0x40, 0x3e, 0x2a, 0x23, 0x53, 0x3f, 0xb3, 0xb9, 0xcf,
    0xbf, 0x48, 0x2b, 0xe5, 0x3e, 0xd6, 0xf2, 0x81, 0xbc
  };

  return AI_HANDLE_PTR(s_har_ign_weights);
}

